/**
  ******************************************************************************
  * @file    network_data_params.c
  * @author  AST Embedded Analytics Research Platform
  * @date    Mon Nov 18 20:07:10 2024
  * @brief   AI Tool Automatic Code Generator for Embedded NN computing
  ******************************************************************************
  * Copyright (c) 2024 STMicroelectronics.
  * All rights reserved.
  *
  * This software is licensed under terms that can be found in the LICENSE file
  * in the root directory of this software component.
  * If no LICENSE file comes with this software, it is provided AS-IS.
  ******************************************************************************
  */

#include "network_data_params.h"


/**  Activations Section  ****************************************************/
ai_handle g_network_activations_table[1 + 2] = {
  AI_HANDLE_PTR(AI_MAGIC_MARKER),
  AI_HANDLE_PTR(NULL),
  AI_HANDLE_PTR(AI_MAGIC_MARKER),
};




/**  Weights Section  ********************************************************/
AI_ALIGNED(32)
const ai_u64 s_network_weights_array_u64[2841] = {
  0x3a1ce1a4bf8175f3U, 0xbddc4d43bdfafd71U, 0xbc0f087fbd89a077U, 0xbc28b907bc9f3a2cU,
  0xbe0e30ed3daad21dU, 0xbf16b62b3e1f0bbfU, 0x3cde70a3bd78e1f8U, 0x3d4e8f09baaa9a90U,
  0x3bbd37bfbf11df37U, 0xbd11860f3ec0e26bU, 0xbe63d95a3e3486aaU, 0xbd92a0adb9ca406bU,
  0x3e7edb94bedeb5b8U, 0xbdfb3323bc82707cU, 0x3a3662bbbc7232d4U, 0xbe0d9d3f3eb4ad03U,
  0xba0174343b7d96b0U, 0x3bfe77a8bed111b1U, 0x3a689838be3ef643U, 0x3eb4e95bbd67c026U,
  0x3ccbc7303ca1ebfdU, 0x3eb9ff493e0fe654U, 0x3e95acd2bbaf2499U, 0xbd49d5bfbd59a579U,
  0x3d22a67abd4bfa85U, 0x3d8edc1e3e00079cU, 0x3df236093e7e26cbU, 0x3b8a234c3d8b2397U,
  0xbda117433dbb01a2U, 0xbe607bcb3e44b359U, 0x3e36c6b63bcad484U, 0xbc4566563d5ff4e1U,
  0x3d28044fbd60980eU, 0xbdf69744bc6bc621U, 0x3dd7fac9bc5b3ee3U, 0xbdf05670bda924a0U,
  0x3d33fbe83c21e4a2U, 0x3ec54009ba34534cU, 0x3dbf740fbe67ba7bU, 0xbd149d24bdacc75fU,
  0xbf9fe26740b102baU, 0x3ca52dfa3f97b949U, 0x40749d66bee66644U, 0xbf06614e3eda2d1fU,
  0x4116aca4bf0f166aU, 0x3e388b163f4e158bU, 0x3fdfdc8740526941U, 0x3f7422d4bfe0d92eU,
  0xbf386a663f01e0c1U, 0xc0412f123e91b4b7U, 0x3fb1ffecbf555958U, 0xbf31163ebf2fe8baU,
  0xbe6bb62dc01fdcb8U, 0x401d577ebf6cff7cU, 0xbfc24fb23de1327cU, 0xc0207f63beef6a09U,
  0xbfc4c8babfc6d130U, 0xbe2a4298beb61c15U, 0x3e173ceebe8cb729U, 0x3ca2979abee921bdU,
  0x3d1ab537bf1d0e50U, 0xbffb9007bf9f541eU, 0x3dc8a74e3e1afeb0U, 0x3ea4da423e55ad98U,
  0x3fadec6abdcf26efU, 0xc031701b3d082b90U, 0xbe293686bfa06aeaU, 0xbc4b6c4d3ed32fddU,
  0x3daa12a4bf257293U, 0x3db0d27b3e186e55U, 0xbe446bed3f4a92cbU, 0xbfded1723e5aec8bU,
  0xbe42f0ecbfab3491U, 0xc04658e0bfc013bbU, 0x3ef2c53dbed719bcU, 0x3f0527e4bed55964U,
  0x3e249211bfa5c79fU, 0x3f40fa0fc0080677U, 0xbedc909dbfd937abU, 0xbf20e980bf65858cU,
  0x3f3dd1853fca7c0dU, 0x3ea759093e749a0fU, 0x3f409717becbeda9U, 0x3eff21d7bdd4aa25U,
  0x3ea75f74bf7e71e8U, 0xbebd950a3fc2228aU, 0x406900e73f81aae4U, 0x3f8f69843f568213U,
  0xbfab4b3640020f4dU, 0xbf4b2ef03fa4907bU, 0xbfa27ac73f530663U, 0xc02f1b7fbf32046aU,
  0xbf7b5a30bf58c9d6U, 0xbc3651583f664ff4U, 0xbfc8a5513f5e0656U, 0xbe3fec89bd20c70eU,
  0x3e472dccbed6c44aU, 0x3dea57bf3e19d724U, 0xbacc8d183da33746U, 0x3f2ae1adbee0d12fU,
  0x3f84f3813e0ba0f4U, 0x401c5c173fc769bcU, 0xbf21a900bf837f01U, 0x40151695bfcf5160U,
  0xbfd7336fba0f6f30U, 0xbf7ed25dbee6fbe3U, 0x3ddd5e493f61c288U, 0xbf68bc2e3e6886efU,
  0xbdf2f1b53f725c86U, 0xbedb752fbd5ae0b5U, 0xbff61c813f16240cU, 0xbf5f6d15bf2810ccU,
  0x3ec6d86d40272372U, 0x3f3e2e88403a42aeU, 0x3fc3ed69bf16f893U, 0x3f41ac1d3f11e7a9U,
  0x3db491453faf1161U, 0x3f809557bf34338dU, 0xbf2f61383f9f0623U, 0x3e24e4823ecb110bU,
  0xbf18d7f13f0d59c6U, 0xbca369e1bf64e1efU, 0x3f70ed683d04f9daU, 0x3e01335fbe1915acU,
  0x3e733f4e3e984a06U, 0xbea7a912bf1c6171U, 0xbf51c5acbee09ab5U, 0x400e0b7e3f2f8cbcU,
  0x3ec2d7bcbe9da966U, 0xbf55873dbf768b2bU, 0x3fdc1fc23f5d78d3U, 0xbf826989bbb2992aU,
  0x401b3f113f30386cU, 0x3f1aa8e63f77a2bcU, 0x3f94b531bfc45383U, 0xbed4c3234085a358U,
  0x408499e24026472eU, 0x4044a050be2daf9dU, 0xc00c72673fde47adU, 0xbf1819c94054c517U,
  0xbe19c9d43e4a53dfU, 0x3e7033133e9b3dfdU, 0x3eb101f9bcc5a65cU, 0xbec194413d1f21c9U,
  0x3ece11fbbc48097eU, 0x3e4e294d3ebe09deU, 0x3f0dab48bc1d3b76U, 0x3f3833553e25e8dcU,
  0xbf06f69a3df6a9a8U, 0x3d57ce513eb13ff4U, 0xbebda715be8caf1cU, 0xbe92c2efbf2e7adfU,
  0xbcb62b443edbad50U, 0x3d45c67f3ef497b4U, 0x3ed0a314bd85120cU, 0x3fb514f93dc269bfU,
  0xbc4592e53f0cce15U, 0x3df53534bde51d3fU, 0xbc79570ebdff3751U, 0x3e8727743e336669U,
  0xbf7f0edac004027eU, 0xbee146dabcc35752U, 0xbf16c4923f0b6069U, 0x3db72d233f922fd6U,
  0xbfd015603ea584b6U, 0x3e32615f3e29afb4U, 0x3e83fb7dbf57e4ccU, 0xbc8bdfe13ded3af5U,
  0x3d3c061e3eaf2ce7U, 0x3fa32e783cd13e2bU, 0xbf1b764bbf39b3bcU, 0xbe1b079f3eff0234U,
  0xbe6fb3693f03d3e0U, 0x3f1b1e113f8f516fU, 0xbe8367913f05e146U, 0x3ccfcdab3ea4f559U,
  0xbf0754323fa41ec3U, 0xbec782ccbf6bb73fU, 0x3ecf53403fec2c6fU, 0x3f839d0b3d57b51fU,
  0xbe43109fbe92c466U, 0xbf38863abf9dbfd6U, 0xbf19322dbdf14b0cU, 0xc075ce93c03fe8edU,
  0x3ecdbcfdbdeb2848U, 0xbee61aa8c07071f6U, 0xbefaba7bc00c0d06U, 0xbe216e8d3f0935ebU,
  0xbb3bea77bf793861U, 0xbea1c546c0a0aeb5U, 0xbf9f8ae43f7f395bU, 0xbec7c3b9401724b5U,
  0x3f9333b340c2cd8cU, 0x41598647400377bdU, 0xbeeff40f3fd1be7fU, 0xc0c12816c05abd08U,
  0xc05688893f9c1623U, 0xbf2478afc003c951U, 0x3fb2806abf369a22U, 0x3ff1fab9c05eb4daU,
  0xbeddd758be99092eU, 0xbf22b7f73e887775U, 0xbc6fb3db3ec27fbfU, 0x3e3295463f1578bfU,
  0x3cc14089bd7e6dedU, 0x3ec28bf03e82bdf4U, 0xbda2344e3f25fc64U, 0x3e65c0cfbeaf25ebU,
  0x3cad0ede3fc38260U, 0x3e6b1d743e4760a3U, 0xbfc62f763f7573a1U, 0xbe3931483ecda4b5U,
  0x3c90396740387ac1U, 0xc01b96f23f93115fU, 0x3f9b6dc13f42693dU, 0x3fa42c1e3f583642U,
  0x3fa1808e3f842b19U, 0xbea9b112bf627a89U, 0x3f2da9de3f82fc6dU, 0x3f0e8c303f8a5446U,
  0x3fb48258bdacc735U, 0x3f4fb7a33eef2dc0U, 0x3e0f3564c015a2d6U, 0x3dfc3658bf5645afU,
  0xbf2e65dabebe67eaU, 0x3f50c9d0bea6aa72U, 0x3d89d70dbe3750baU, 0x3e68c55a3f916115U,
  0xbedb09323f5145c2U, 0x3ebbb370bbcdd626U, 0x4008768bbfee1771U, 0xbf0e9e563e988093U,
  0xbfc715a4c04a5028U, 0xbf730352c00b7104U, 0x3e68955ebd0f7f60U, 0xbfff10d6c00eb511U,
  0x3e66287ebe13e84fU, 0x3efaea2b3f8e99cdU, 0xbe8ce7e5c006623cU, 0xbd1621c3c017ccbaU,
  0x3f990c3a3ffb4886U, 0x3ec66f633fa600efU, 0x401343d9bed83381U, 0xbf6c6d41bf3a84bdU,
  0x40191ebcbfdc4228U, 0x3f0d3a243f80f331U, 0x3fef3dab3f5b9023U, 0x40192f9c3fd1070cU,
  0xc01191593f503cc3U, 0xbfc9a9963f791f80U, 0xbf345c4ac008bad9U, 0xbf82e465c01fdc08U,
  0xbfb5fafec03c55c8U, 0x4091b8063f8dcd4eU, 0xc090772c3ed4a39bU, 0xbf8dab34bf6a6fcfU,
  0xc0b2329ec0373022U, 0xbe562f53bf94e938U, 0x3f242225be91a1e9U, 0x3de4d963bfb1acacU,
  0xbfb9ffbebfb0e08eU, 0x3f323b23c05ec2cfU, 0xbf3be411bd712fdaU, 0xbf7052c1bf764e70U,
  0xbf6a82b73e9abfc6U, 0x3f76c287400ebf12U, 0xbf052ca2bfacbad4U, 0xbd7994edbf6658efU,
  0x3fa3385540331696U, 0x3e7b991a401b8ecdU, 0x3fde1b27bee50543U, 0x3f5f16e1bf55d376U,
  0x3f8f3429c01c495dU, 0xbf711366bf8a58caU, 0xbeb26499bfd49cb5U, 0xba305ee83fad448fU,
  0x3f6090f63f05abc7U, 0x3eb053bd3fbc2ff1U, 0xbf85bda33fbe91faU, 0xbfd0d3bd3fbbe850U,
  0xbfe5b635bf4a8411U, 0xbedb4b51bf83a9dbU, 0xbfd0287a3ead8cceU, 0xbf1bb2c8400b1f17U,
  0xbfe64ecf3f059b26U, 0xbda0b2a33f643b1aU, 0xbedcb462bf60cbdbU, 0xbc3b5dc2bfd7ab7cU,
  0x3eda59473d8f04d7U, 0x3f8806733ee68e53U, 0x3ffbc0d0401a514aU, 0x3f0b2cdabe8c7951U,
  0x40204b8cc022c1f1U, 0xbfe71a71bfe9bf77U, 0x3f768921c000f556U, 0xbd80880d3fdaba42U,
  0x40377f1d3f304e48U, 0x403c185f4007d7d7U, 0xc03c7c18be943272U, 0xc00b26653fb9305fU,
  0xbfdb8f4cbf3c3b1eU, 0xbc474b563df7d25eU, 0xbffcb4f13e81746bU, 0xbff7f4fc3f69ae38U,
  0xbf8baa623f45fb6bU, 0x3e2b5a873fb2599eU, 0x3e895e7b3f1c4d5cU, 0xbf943957bfa338f3U,
  0x3fa3104ebdfce96eU, 0x3f1887c03f9f67aeU, 0x40107b973fc04df1U, 0xbf4d4b5bbef19c4fU,
  0x3fe0d77abf0d2378U, 0x3f7cffe5bfe98815U, 0x3ea426f6bfc26426U, 0xbe9d3be94003e37aU,
  0x4032dfdf3f90cc9bU, 0x402358bdbf533154U, 0xbff9a564403715fbU, 0xbf901c1d3f9d6b31U,
  0x40861a96401b771cU, 0xbfb6c89cc012242aU, 0x408b556dbf94c625U, 0x3f54abc13e096d42U,
  0x3f2695a53f13627cU, 0xbfb0c20bbf92728aU, 0x4018f3fd3f02af86U, 0x40ddcec63f803cb2U,
  0x3eb2e95dbeebc8feU, 0xc029b672c047e2e9U, 0xbff5311ebfe0737fU, 0xc02afe37c06f3db9U,
  0x3ecfeb4c4042d210U, 0xc0e71bb83fc53605U, 0xbda32c3cbf226dc9U, 0x40a437e03fbcf31fU,
  0xbce42016c0061b61U, 0x3e3eb7e83f067f2fU, 0xbc775c1f3f6b25c2U, 0x3f8fd3503fd047caU,
  0xbf65858d3f135147U, 0x3e8d6b093f937af1U, 0xbdd9fb553fb2c258U, 0xbf98fa473f8d029eU,
  0x3f522ec93f2f44abU, 0x3f20ea103f3aae63U, 0x3fa3f89d3f57d046U, 0x3f5271b3bf4ffc47U,
  0xbe6110a43e64c21dU, 0x3f4b0bf23f83bd6dU, 0x3f2d1762402feaecU, 0x4013de453fbbf4cdU,
  0x3ff803533e2b0ba1U, 0xc00c29ba3cb36897U, 0x3fdc7993bfbc54e5U, 0x3fcbecc83fb1bf02U,
  0x3f8352a2401158a5U, 0x3fcec6d93fa886adU, 0xc008e57a3d23c3eaU, 0xbfac39db3f774c0fU,
  0xc03e7fda3faf5d3eU, 0xbf562019bf8eb40bU, 0x3fa60bfb40a875e0U, 0xbfac3b803fbbce24U,
  0xbc574d0c3eb33d81U, 0x40468529409d9a15U, 0x3fe4e9253f9a0120U, 0x3e4781d2bfca9753U,
  0x3cfa90e7408228ddU, 0x4038f2f240c4cee5U, 0xbfd174e4c02727e8U, 0xbf06ffe53ef9657aU,
  0xbfc71ae83fb70776U, 0xbf3a28bf40abfd5aU, 0x3df5b8823f20fd63U, 0x380f7ff83fbb2d1cU,
  0x3f60d5dc3fcdf64fU, 0x3dd74266bf2cc558U, 0x3dde2ac93f252b2cU, 0x400ea5793f86a9d8U,
  0xc02fd704bf117206U, 0xc0152de5bfbf838cU, 0xbfacdb46bf070aeaU, 0xbf94b5f03dc1e203U,
  0x3edeedd53f46bcb3U, 0xbfba8dbbc07912eeU, 0xc0172aacc035bc63U, 0xbe59ab87bfd3cb4dU,
  0x3edb09f3be5fa613U, 0xbe02574fc092d798U, 0xc0024c2e3f3c7efeU, 0x3fc996133f1f464dU,
  0xbf2f716f3ed58688U, 0x3d64e24d3f9156e1U, 0x3e4aa4943e80d9deU, 0x3f8524ff3f89213eU,
  0x402fb3f13ea515d4U, 0x3ef9dbe83dd54ce3U, 0xbe02d5be3ff74f0aU, 0x3e045d1d3fa49fe6U,
  0xbe97f7ea3e5552e7U, 0x3f4029b4bd6e7d02U, 0x3e643b9d3dc1aff7U, 0xbf1d1ad6bfa80bb4U,
  0x3ee17be7bf4fbb68U, 0xbeb15cbebe225556U, 0x3f2e01093ee72e12U, 0x3e051bc63dce53f9U,
  0xbdfb3de0bdee2763U, 0xbf6b627f3b38a6faU, 0xc0288bf1beaf07acU, 0x3f3415303f4578b3U,
  0x3ea6ac9f405dd8a8U, 0xbfe87764400298c2U, 0x4000a4d93ecb84aaU, 0x3fed43ae3fcfecddU,
  0x3fd8213f4089424cU, 0xbe63b320bf958321U, 0x3e672ba5400c5ed8U, 0x3dfcd7d44014e9b2U,
  0xbfc0239abfbfd645U, 0xbf297ce1bf977b32U, 0xbf9e28b63fb92f19U, 0x3f809dff3fd56bd4U,
  0xbe21fbec3f5f4619U, 0xbe688a5cbef097d6U, 0xc0013a67bfae1975U, 0xbf96ece2bfbf357bU,
  0x3fa00636bdc88e8fU, 0x3f9b2d4dbd9f172eU, 0xbf0afb8abe9aff56U, 0xbf0b34cdbf5833a0U,
  0xbe95f009be435e5aU, 0xbf3ae9593eb24941U, 0x3d49c93c3f20541aU, 0x3ebe493c3e1caefaU,
  0x3f4f70eebf204dcdU, 0x3dd710e7bf822a6bU, 0x3d61853bbd4dba8fU, 0xbda33e393ec91403U,
  0xbed75b7ebf9c22bbU, 0xbf28d7e0bf275af9U, 0x3eacf78a3f2ecfefU, 0xbdc60c3f3eaa9131U,
  0xbe90c638be39553aU, 0xbf5bc9f43dd4b736U, 0x3f77d3eabf98c27aU, 0x3f0e7f00be8565a8U,
  0xbeeedfa3bf45bb84U, 0x3d1042fe3d54b1a9U, 0x3e89633b3f775badU, 0x3e85bfef3f50759aU,
  0x3f837113bfbded0bU, 0x3c6e1c9fbfed83b8U, 0xbf2fd2b1bedc11c0U, 0xbed5f9903ec77d14U,
  0xbf5a4fd13e6ed02bU, 0xbe8ce8c63f23b5aaU, 0x3e30affdbce564cfU, 0xbf94c87b3ef0bfcaU,
  0x3fbda1a23ef4d26dU, 0x3e1c66e33dfa3e56U, 0x3f222d33bf381c01U, 0xbed3a4cbbfcd5749U,
  0x3f63505ebf4a3a9fU, 0x3e2c5c1a3e866406U, 0x3f703ead3dd017ccU, 0x3fc2355f3f6fd60aU,
  0xbf42c8a0bdaefec2U, 0xbee864223e9e5de1U, 0xbb94cc91be46a6feU, 0xbf092f26be1a7d5bU,
  0xbd715350beaa1340U, 0xbea39635bd860198U, 0xbd7af316bd11892cU, 0x3e04e2b43c8e6d09U,
  0x3cc2e962be99c8c7U, 0x3b1d8e1a3d891c8eU, 0xbc3926283ea2ae00U, 0xbd961a9f3dc0807dU,
  0xbf9169773e99e21fU, 0xc07779453f4d0823U, 0x3fa84b6840af157eU, 0x3f7545694102db56U,
  0xbdbe28443f4b338bU, 0xbfcc63343fbb704bU, 0x3f2757b93f8051d1U, 0x3e10a214c00452c5U,
  0xbc59c5543f333ba6U, 0x409c2bbb3fbac8b7U, 0xbf2e679d3f0550ffU, 0xbf185ec2bde6d312U,
  0xbece39e7be231bb9U, 0x3f56c507be10fbeaU, 0xbf92b0f6be15dcedU, 0xbe17559e3f617af6U,
  0x3f02c7d53d041965U, 0x3edb8c5a3f53a903U, 0xbeeef329bf0a57a2U, 0x3e80ccd53f3eb2baU,
  0x3d6088b43e85b328U, 0x3e3aab6cbe0a262eU, 0x3d2173a0bd516c84U, 0x408e0969be871dfcU,
  0xbffb7057bdd2a55fU, 0xbf6f9fd5bf7d6127U, 0xc029ca63bf9a1caeU, 0xbe3ab6afbc846496U,
  0xbde66c56be448b91U, 0xbe292284bfc07d49U, 0xbef4dee7bf151d0eU, 0x3efa0879beb5a3efU,
  0xbf29befebf417016U, 0xbeb86324bf906da0U, 0xbec233ad3f0363c3U, 0xbea11e53bf564bc3U,
  0xbf9f5d62bf536387U, 0xbfaf12ffbd972db1U, 0x3f600561bf869ce6U, 0x3ddcc02fbf7eef55U,
  0xc0042befbf1a7c4eU, 0x3e1972a53eee4699U, 0xbff2309abdd2b6e6U, 0xbe85e6da3e33d06fU,
  0xbe304f57bef559afU, 0x3eb630fd3f44daf3U, 0x3f893c433ebec235U, 0xbfb75472bebe5341U,
  0xbf5f3b7ebc629e3eU, 0x3eccebad3f992594U, 0xbd853a95be96576dU, 0xbedd99f2bf21a201U,
  0xbd4505643e9f990aU, 0x3de03ebd3ec0727aU, 0x3ee6a241bed477e9U, 0xbf0e65efbc514ab0U,
  0xbd5ad4653e3fe09bU, 0x3e6917ddbd440292U, 0xbe801c26bf02cc59U, 0xbdd822983dacafb0U,
  0xbed5104f3da000f6U, 0xbdf5b09a3efa92adU, 0xbc88decf3ed36803U, 0xbebd0dfa3eb38e56U,
  0x3ded32e93dd3ca88U, 0x3e6cf98d3edaa4f9U, 0x3d5f884d3eb531e9U, 0xbd43242bbe9f3132U,
  0x3da9fa7c3e03d41eU, 0x3ea171c73e6b70b1U, 0xbd099b60bdd954b5U, 0xbcd02db7bf136235U,
  0xbd46d625bda894c8U, 0xbe1df70c3d2a9370U, 0x3dd17272bd56c32fU, 0x3f535ef9bc4058cdU,
  0xbdd101bebe44fe67U, 0xbcd2c6b33e1239f1U, 0x3d8f3abe3f628149U, 0x3d35f387bc1996a8U,
  0xbed0c77cbe93fd38U, 0x3f9801623f469e29U, 0xbf1f641cbe2c0fa9U, 0xbe8c5773bb9b8d1bU,
  0xbf803524be90d628U, 0x3ea01bef3ea25cddU, 0x3ee689a53f0903c1U, 0x3e6128fe3ea33259U,
  0xbe936f923db6cbb0U, 0x3effc5b9bc78e3fcU, 0xbf39a80d3ef00b8fU, 0x3ed2f75d3ebdbaadU,
  0xbe6e6dc73eb7759cU, 0xbedacc383d660456U, 0x40105545be54802bU, 0x3ea257b33ed78a56U,
  0x3f1373c13f31e54eU, 0x3f0452f03e61a517U, 0xbe0629d23dcfd76aU, 0xbf32d5f13e6550ebU,
  0x404105a03ea20323U, 0xbf6043d43d4186b0U, 0x3fa2e983bf8aeba0U, 0x3e7f8d9cbe3c3e35U,
  0x3ecf007bbd094ab0U, 0xbf43526fbfd81709U, 0x3c502ca8bf9a36d9U, 0xbd59ce9a3fea8dd6U,
  0xbeb0eef0be3e5769U, 0x3e689ce3bfa37fc1U, 0xbe1a8ef93e7fa798U, 0xbe16fa7e3fa9a7ecU,
  0x3f864471408d502fU, 0x4007d8e73f841d9fU, 0x3f577a843eb07fc2U, 0xc01317d83ed1194fU,
  0x3fdbd9363f87f78fU, 0x3e789e543e8be779U, 0xbe1c64713dc1b60cU, 0x3f9285613ec1baf1U,
  0xbf4243cfbf27e8c9U, 0x3eff35e63f63f06bU, 0xbf8450dabeb8c806U, 0x3e1bc0783ee380e8U,
  0xbfa5c6253f885012U, 0x3f2f566fbfcae12bU, 0xbfe2f4a33ed9334aU, 0xbf95f4bcbf8f65edU,
  0x3f967a763e6d142bU, 0x3edef508bfa60782U, 0xbed1546ebef43f2bU, 0x3e9da7ed3d33896dU,
  0xbf1bb9953e0f0a24U, 0x3b44451b3eb7692eU, 0x3e3437703f1748dfU, 0x3e144b4bbd588f35U,
  0xbf3b58923ccfc739U, 0xbf47cb8dbe409984U, 0x3f299b75bdc56f9cU, 0x3f04b475bdd0d32bU,
  0x3f0e4b41bf0ea9c2U, 0xbecd4b87bf2678abU, 0xbe561ca8bfd2911cU, 0xbee6bcb0bd3c9cf3U,
  0xbd6cdba2bf3e51cbU, 0xbec81b4a3d8ccb69U, 0xbe50ae76bf3185f5U, 0xbcf4c80e3f217689U,
  0xbdf66fc43eb2c11eU, 0xbf6d50503f058d4eU, 0xbf91d428bf069cf4U, 0xbecb6bcfbea80e22U,
  0xbf873f7f3fc35a6dU, 0xbdb5ef0a3eebbf3fU, 0xbf535a78be54f2d4U, 0xbe02c6f63e4ea04eU,
  0xbfbdb1bcbe58d61cU, 0xbfc61d7dbf59523dU, 0x3eb630d63e0c4222U, 0x3eeb84043f131633U,
  0xbe6e9ab8bf7f2030U, 0xbfcc3c43bf2464e1U, 0x3c85953f3f4e1976U, 0x3f8a13823f0d9358U,
  0x3f0300be3d7a1f44U, 0xbe652f293d1b9fd5U, 0xbeaa3034bf2bbeb9U, 0xbbb2f86140066ed4U,
  0x3d7827423fe3e937U, 0x3ebe3d553e3ba9d8U, 0xbfc5c55fc07825b0U, 0x3e78b11d3fbe9496U,
  0xc09da2e0bc709833U, 0x40676a1e40126f1bU, 0xbfb703d73fe8ed63U, 0xbf16cf8cc0324c01U,
  0xc0fe9ddebfbc0518U, 0xc044fe83bfdbc3fcU, 0x40469ae7bf805db1U, 0x3fddf721c00bc720U,
  0xbf7711ddbc96a15fU, 0xbf911e553e92513aU, 0xbf0a52ca3fe1fdd9U, 0xbef2da023f0e4b64U,
  0xbeb77d343f24eed8U, 0xbd83e09bbe6d0827U, 0xbf96ab8bc069d0bbU, 0x3f5cd18cbfe567c3U,
  0x3f09118c3ead299fU, 0x3f8b5fabbf01ddcfU, 0x3d6ec32c3e04e510U, 0xbba0fa4fbc98cb08U,
  0xbcddd12cbdc021b2U, 0xbe02df38bddb0379U, 0xbba01ac13d0aff85U, 0x3fb05223bd6d3522U,
  0x3d6dc1cc3c6f8acfU, 0x3c5939ba3e1ae155U, 0xbb928ac6bf1d756fU, 0xbd278dc2bd814fd2U,
  0x3f3a43d93f9ec199U, 0xba48876d3f002b50U, 0x3ed07c47bfba10f6U, 0x3fd6944abee0ce10U,
  0xbe8d26e7bf3eb717U, 0xbef9b0de3f786479U, 0x401b63ba3ed4dd1dU, 0x3f9726533f21b164U,
  0xbf93b407401a9ea9U, 0xbf1c7b2b3f4ff3dcU, 0x3e08f35dbf11bd36U, 0xbeab7942be50930fU,
  0xbeb2132ac0358d4eU, 0x400ed0283be22325U, 0xbf107c083dd65c91U, 0xbfef08babf095ed0U,
  0xbfb1b63fc00bcc37U, 0xbe87ed323ce14b1fU, 0x3e23f6f33d817270U, 0xbb38c483be9fc2adU,
  0x3fcaf3503e105f02U, 0x3f96cb6e3ee9e6b6U, 0xbedbdc593e7e1c5cU, 0x40302e69bffccce2U,
  0xbfff5c0e3edeb6dbU, 0xbfd566be3e292c49U, 0xbe6c42523eca7d7bU, 0xbfa67b23bea695cbU,
  0x3e4225a13f82d4e6U, 0x3ea7cdbb3f2ed282U, 0x3ff149db3e939d4cU, 0xbf25cde2bf19fbacU,
  0x3fb2579a3f079a1cU, 0xbe04f0d9bf87a9b4U, 0x3f8a2c53bf80d1deU, 0x3d1e46d5401b0951U,
  0x3fae08b83e2d5d10U, 0x400e2a943f432ea9U, 0xbfb03dce3f834580U, 0xbf087b1d3ff51d46U,
  0x3ef20296be8f8f1dU, 0xbed04d9bbe995fc3U, 0x3f0e146ebd944ce5U, 0xbf8b455f3f38656bU,
  0x3e9a06c9bea2b3dfU, 0xbefebef23d968be1U, 0x3ebfe4bc3f5a7595U, 0x3f11ff4f3e838eacU,
  0xbe9b73e5be052bf7U, 0xbf07c65ebf218069U, 0xbf079aefbe2ab01fU, 0xbed6e5bbbf1a53fbU,
  0x3e63fbc23f32c81fU, 0x3f4f40333f282bcaU, 0x3e86faccbdae7724U, 0x3f020ce23f1c2001U,
  0x3e244afa3f4971f6U, 0x3f1e7d26bf855143U, 0xbc53378b3f48e8feU, 0xbde88d243f025f57U,
  0x3e20ba32bea64f0aU, 0xbefbb444bbdadaaaU, 0x3e0501423d8a79ffU, 0x3f2cb4e63e1e0b2bU,
  0xbd80db13bec11f17U, 0xbe16664e3d918947U, 0xbd6607643ed9d1d1U, 0x3e3c2b533d93f778U,
  0x3c44df843f88d5ecU, 0x3e446c6fbd85cb81U, 0x3f1f7a3c3fa2f02fU, 0x3fab272dbcdbfd14U,
  0x3fb156253f2d66a6U, 0xbe9f787ebddcd945U, 0x3fa2068cbf75c04aU, 0x3fb71ea23fe477eeU,
  0x4010c80c3faa36fcU, 0x3fb599923f6055adU, 0xbfa3d23d3f9710cbU, 0xbed15e273fe9b4bcU,
  0xbfb325ad3f3a8755U, 0xbf885b9d3ef93c1fU, 0x3f621b09bf82edc9U, 0xbddfa5943fb2da85U,
  0xbe8049c83d749118U, 0x3d12e8103fe227b1U, 0x3f6d80033fec06b7U, 0x3e8a6a92c03848e7U,
  0x3eace9ad3ea9dd76U, 0x3f4b1c503fbee5fdU, 0xbfcf6557bd09d404U, 0x3fb3f2233fc81b9fU,
  0x3f25e04e403c1f47U, 0xbee310414054bf76U, 0xbf3d6e7c3f56708dU, 0x3f1e4ee04018dde6U,
  0x3ee87797402fcccdU, 0xbf21c89bc02afa42U, 0x3f0c3aa540510f39U, 0x3ff4a50c40128ea4U,
  0x408b5fed3faaceabU, 0xbfbfeefc3f5ec49aU, 0x3fb14880bfd64eefU, 0x3eebcee53e08d3f0U,
  0x3e8690cfbe8cfa1eU, 0xbfafcabac0ad17caU, 0xbf5ef40cbfacec4dU, 0x3ecdf979403e2074U,
  0xbf27850cbf391f94U, 0xbeb71e91c0dc8d64U, 0x40d2df914094e950U, 0xbfe84197bf028e35U,
  0x40abcdf8c03a9835U, 0x3cd1a960bfa7a078U, 0x4015eb99bfd20deeU, 0xc0085b1dbebc3933U,
  0x4086977a3f63c6afU, 0x4093a225406b8121U, 0xc00f9c2fbfb557b6U, 0xc0890d0dbfe576caU,
  0x3e417232be070e3dU, 0x3ea0aee93e45d857U, 0xbd79de003d0e39adU, 0x3cddb9bf3cfd1b2bU,
  0xbcff05ec3cd710f1U, 0xbeb2150f3d578f17U, 0xbd1aed1ebd99f7a8U, 0x3d5c3d39be30d142U,
  0xbc9c5a063f7f3149U, 0x3b463cb7bc834140U, 0xbe057df0be5dad1bU, 0x3e86c00b3e1b2b53U,
  0x3d89e5ad3efbccabU, 0xbf8ddc8b3f8d06f8U, 0x3dbd29183e018ab2U, 0x3f0a3e793f734a16U,
  0x3aef3e3c3d8d045dU, 0xbc93991dbe2203f4U, 0x3da331e13f835cccU, 0x3e5b60a83f6c6af1U,
  0x3d373f93be217499U, 0xbeb371c8bf143747U, 0x3dfb09413d503c39U, 0xbef7a37ebf56831fU,
  0x3e958170be31ffefU, 0x3d7885c5bf50d131U, 0xbb6b3a11be58ed62U, 0xbd862e2a3ea62ce2U,
  0xbd3f39e6bf416449U, 0xbd9c865bbf87a0aeU, 0x3f9737323f856cecU, 0x3fd670eb3f61afbbU,
  0xbca4edb6bce467a1U, 0x3ec6fc2dbf44e4e9U, 0x3ecfe072bf166689U, 0xbe800dbe3f857d86U,
  0x40011eb340253d1cU, 0x3e9367923df54764U, 0xbeb2c5293f193b79U, 0xbf4279b93fca6514U,
  0x0U, 0x0U, 0x0U, 0x0U,
  0x0U, 0x0U, 0x0U, 0x0U,
  0x0U, 0x0U, 0x0U, 0x0U,
  0x0U, 0x0U, 0x0U, 0x0U,
  0x0U, 0x0U, 0x0U, 0x0U,
  0x0U, 0x0U, 0x0U, 0x0U,
  0x0U, 0x0U, 0x0U, 0x0U,
  0x0U, 0x0U, 0xbf643cbebe76ec2dU, 0x3fe4e6083d36d6ccU,
  0xbd1a433540b01ac9U, 0x3f1c6aec40407cc7U, 0x40aefbbd3f882fccU, 0x3e7e551140c376daU,
  0xc01c513c3ed7bf5aU, 0xc00b3529bfe2cc78U, 0x40887d94bc814dacU, 0x40382ed04059dc56U,
  0xbf8d3fd34061c22cU, 0x4033a6d03d8a3bb9U, 0x4089bed83d38cb51U, 0x40b84312be3589f2U,
  0x3fb26624bfd49d1cU, 0x40ae2ccb3f895637U, 0x3f454a833f9ab185U, 0x3f908c20bf602e15U,
  0x3e48c25c3faf9f4aU, 0x3f7e89f1bf1d30eaU, 0x40268e7e3f5e35e2U, 0x3e89fd133ff2cfe6U,
  0x3f0408973dc1114bU, 0xbdfb545f3d29dc36U, 0x3ecf2c25c01a790fU, 0x3e144e2e403f13afU,
  0x3f8480e63f4bc4f3U, 0x3f27c9bf3fab250cU, 0xc09c1f8fc0232f44U, 0xc01bf03f401018d8U,
  0xc0df7502c007dfe9U, 0x3f78d13cbf854040U, 0xc0ac29e74099eaddU, 0x40bfc922402d5443U,
  0x3d1bcedd3fa5ef88U, 0x40bcb8da3ba2a541U, 0xc07bac08bf91714cU, 0xc091b89e3f0249c9U,
  0xbe94de713ed56c98U, 0x404186353c093bbaU, 0xbef8e249bed95476U, 0x3d848e173b060817U,
  0xbb26f2b4ba2a6bf7U, 0x3c8c98c8bbddc4aeU, 0x3ecbb84c3d04b7a6U, 0xbdcc5039bd8bde6cU,
  0xbac05d98bd0c4978U, 0x3db4352ebd78f411U, 0x3ab74a4a3e8bdd2cU, 0xbb66da96bbb26961U,
  0x3c2346943c3d3f17U, 0xbb7e010a3ba81047U, 0x3aa8469d3b6be559U, 0x3d894cc33c6f65e9U,
  0x3e82a7bd3f1f1f97U, 0x3b0c11713d167c9fU, 0x3cbc2074bd2a8ea8U, 0xbd5f895cbe6b4b0cU,
  0xbb2190683e19b4f5U, 0xbbfbed103b8163aaU, 0x3d2c66863d98b620U, 0xbe58902d3b626788U,
  0xbb96ec8b3f3f12e4U, 0xbe2a3156be37ed2bU, 0xbe1be0893e9be45cU, 0x3e476f3abd711e42U,
  0xbcea6567be87c2f4U, 0xbe899995be9eb5fbU, 0x3cb57982be86e451U, 0x3e5d0e673e45d19eU,
  0xbc129225bb01f9a4U, 0xbcc868c23c359b88U, 0xb9ab75dc3f2acac1U, 0xbd9648efbdd3a6c3U,
  0xbdb72efdbd171adcU, 0x3c7ef5893bcdc9b7U, 0xbcc0471f3db988e8U, 0x3cf24300bf001ce0U,
  0xbce954473a74c0f2U, 0xbd8b27693cdb5953U, 0xbf5a8404c078305fU, 0x3fa93c933e46f44bU,
  0xc0e1cccec0a35847U, 0x3e9f97d13ef9e450U, 0xc075f06fbfe300c4U, 0xc03704b2bffaef79U,
  0x3f309bc33fd42ec7U, 0xbe40a2d3407de40bU, 0x3fbab419bfb193c4U, 0xc0662d863e7aafbfU,
  0x3e1d5e45bf835a81U, 0xbdbb1dfebfcaddd2U, 0x40184315be5e4beeU, 0x3d89c1833f212b9cU,
  0x3f6140253eeb5e8dU, 0xbf0a68593f6a46ebU, 0xbd759b39bf3d11aaU, 0x3c96775fbf8d6bdbU,
  0xbf5c0585403041f0U, 0x3f68fd93c01b2930U, 0xbf6571293ff5ba9dU, 0x3eb4a8d8bf604e25U,
  0xbedb01cdbf3bd3e5U, 0x3ec74582c006bfa7U, 0x3f1e7626be8eb2dbU, 0x3e9447dd3f929d35U,
  0x3f17cb81be90c9afU, 0x3dff667f3e964ce2U, 0x3f172cdabf944e34U, 0xc01c7f323f342082U,
  0xbd309b1ebdb5d092U, 0xbf990d483e06bb2dU, 0x3f3fcfbb3f0a6dd6U, 0xbcde3226be237797U,
  0x3e342ae93f12cebcU, 0x3dd080183e385517U, 0xbf65a0e8bf191766U, 0xbf4a3ab7be328353U,
  0x3dba120abf058fc2U, 0x3e41058c3e6580a9U, 0xbe82e283c0166616U, 0xbfbbe0a6be38deeaU,
  0x3e48d6c6be75e3c4U, 0x4166e419412e5376U, 0x405861fe3feae7fcU, 0x3f4ffe6c3f9ee1e9U,
  0x3f458772bf1a5259U, 0xbd73d77240b402dbU, 0xbef9f5db3f078fd4U, 0xc137701ebd9ffb61U,
  0x3d4a5973c054b6a8U, 0x3d796188bec2eca8U, 0xbef2bd82bd52a205U, 0x3ec349643e61506fU,
  0x3ed341653eb6d75fU, 0xbdbd605a3e039a0cU, 0xbe8ee855be5c4e37U, 0x3d8a657f3ec75f9fU,
  0xbf2647b33f5533c9U, 0xbf2c6246c00061f6U, 0xbf9390b9bd9b2169U, 0x3f049c943fc8f998U,
  0xbed309abbead8f6eU, 0x3fe16d2f3f2035b7U, 0x3fc43ca73c9af5b8U, 0x3fbdec90bfd51c5eU,
  0x3f963f82bfbccb4dU, 0xbd93585fbe6f8cf1U, 0xbf06a1cd3e31780dU, 0xbfe0addc402a0f6eU,
  0x3f526ecac02fd943U, 0x3e6009efbfc3680bU, 0xbfac788ebf8c03a9U, 0xbe71572ebf2f5b40U,
  0xbe067c1cbf7fe74fU, 0x3e97b5e4bdb6dad2U, 0x3ec896e53fa30a28U, 0x3f15257b3ed3d995U,
  0x3c8fb9d53e992a74U, 0xbf32af34bcec0e78U, 0x3f3edb4e4048125aU, 0xbce95a303f827a6bU,
  0x3ed5a99d3edc22a6U, 0x3f95d15040555a66U, 0x4003db753eb0d477U, 0xbf96d77f3f906c35U,
  0x3f195c2abf993c2fU, 0x3c736d473e55c9e5U, 0x3e9a3253bf1aac6bU, 0x3eec2ad0be37213aU,
  0xbe0010fb3eb831a9U, 0x400631933fc3911eU, 0xbf0a157bbf83cf2dU, 0x3f5a52e93f1466ffU,
  0x3fbc72a0bfd708f1U, 0x3f1fe2f63d992b3aU, 0x402c52ce3e1fc05eU, 0x3f63799e3e87bab4U,
  0x3ee6242b3f4bd173U, 0xbeb4ccc73fa3aa87U, 0x3ee18db43ebb33b0U, 0x3e8802323f99098aU,
  0xbf748f28be6b0951U, 0x3f0847bebf51b947U, 0xbf9534a4be8cc75eU, 0xbec3f8b3bf830ac5U,
  0x3e9bfb213f503f4bU, 0x3da538483f3dfab4U, 0x3f8fdda1bfa6b30bU, 0xbf8086493f83fbf9U,
  0xbf9ee05fbd08dbfcU, 0xbb8ab4d1be2bd19cU, 0x3e1cd4ff3e7759e4U, 0x3e7b44cbbe80d8e5U,
  0xbd3539a13e25821dU, 0xbef8b09dbe2e725bU, 0x3ce71569be0e9ad8U, 0xbda89a3f3e75280cU,
  0x3de49b873c1b6490U, 0xbe9c8474be97e169U, 0x3e55c2d43fac2d17U, 0xbf35dba13fcff73bU,
  0x3f4f75843ed2b545U, 0x3f2247c73f5e5b0bU, 0xbe8c01063f0c4074U, 0xbfacdb9dbea49d64U,
  0xbf368288bee37f0bU, 0xbf6a1198bfc06c68U, 0xbd9c96a5c00f727bU, 0xbf7ffe613f5b0c8aU,
  0xbf56e98c3f3a6c1bU, 0x3f19407cbf758e0fU, 0x3f3e748ebedf7ee2U, 0x3f96766e3f258048U,
  0x3f9cfdc2bf3cc1d7U, 0xc015cc30bf8b6ec8U, 0x3f3fae09bfb5cad4U, 0x3d2b9d4fbf14fffbU,
  0xbf0aa86e3fca0729U, 0x3e45bb22bfd16792U, 0xbe7af2aa4056c403U, 0xbfdb0bbf401f0682U,
  0x3fb3b2623db75778U, 0x3ec143d13c4ddc98U, 0xbf075eee3f4a01b1U, 0xbf7bccf3bf47b6e9U,
  0xbf96213abfa5902aU, 0xbfd16877bf63079eU, 0xbfa16cd2c0878c9fU, 0xbf85247e4009fc7cU,
  0xbf1a70cc3ffe866aU, 0x3fe336e33ea8a449U, 0x3eaeaae2bffa55b9U, 0xbfbca96640396841U,
  0x40057057bf138f36U, 0x3fb1abdf3fab8a87U, 0x3f5d5a8a3f6a3488U, 0x3fadbaf0bff6b4dcU,
  0x3fc743503d18bfb1U, 0x404c8efdbf9d6d90U, 0xbe9a5f4ebdd6d072U, 0x40077076400a1f93U,
  0xc03ce3e1bfac7b09U, 0xbf0b0e7abf61b30dU, 0x3dc6e7c8bf13a7d8U, 0x3eb633a6bdcc4971U,
  0x3fdacf9d3ea073e3U, 0x3f3556c2bee58fdcU, 0x3fc95902bcb4241dU, 0x3e0e1be63f575385U,
  0xbfa9acbfbe8268efU, 0x3e8c64e63efc738dU, 0xbf98362ebf537baaU, 0xc02d1f4dc1916718U,
  0xc183281ebfcbad7dU, 0xbf87ed50bfbee699U, 0xbf4399fc3fc70fceU, 0x3ea427453d44e2d4U,
  0x401354e9bf855437U, 0x3fd5fe723f6c52d5U, 0xbe84167abf89d914U, 0xbf6d9f9ebf23f5f8U,
  0x3f2e1db13f821988U, 0xbf00a1ee3fcf3436U, 0x400168283f37e2e8U, 0xc0a4c87e40a4713aU,
  0x3ed83d6cbfac660dU, 0xbf039939c0a48f9eU, 0xbfd2c22b3f402624U, 0x3fe43d34bfc12085U,
  0x3f76e610bf1c5ba6U, 0xc00dec9e3f01e4a0U, 0xc06645253ec77a91U, 0x3f7db7303ead0056U,
  0x3f2b75d63ff0f650U, 0xbe0a1a8a3f6c4142U, 0xbf2a463fc01e73c9U, 0xbee822d0bfcf8310U,
  0xc085091a3ea70ed0U, 0x402fa9b9becdfd42U, 0x3edcd202bf281437U, 0x40402cf73f01f2deU,
  0xc02893f6c0ac14a2U, 0xc0625207c0aae516U, 0xc1439a0fbfd1c853U, 0xbf88e956bf65e611U,
  0x3fbd36ea3f889b70U, 0xbeb85884bf9f96a8U, 0x3efd1cc4bfa3edf1U, 0x401f05a1beabd107U,
  0xbfb5db17c0459410U, 0xbe24b8b1c059c53dU, 0x402715873ed6ef9dU, 0xbfafcbd23f31d5feU,
  0x3f932b8d3f49624cU, 0xbf7a2d4640297f6aU, 0x3f07226dbf2889cfU, 0xbf326bb7c00ad4e4U,
  0x3fae01bd3ff8e1ccU, 0x401437e1bf16f20fU, 0xbebf4181414102ddU, 0xbe04e43fbdc33457U,
  0x3ea3d052bfa40fa2U, 0xc12c708ebfe58cd5U, 0xbfc795bcbfa7b691U, 0x3fc26213be073494U,
  0xbf099b773e91b724U, 0xbee22fecc02fb677U, 0x3f7696eec0a1030aU, 0x410cf4ac4015afd0U,
  0xc001726b3dcc3a87U, 0xbf1151564021282fU, 0x3ef506733feef481U, 0xbee430c73f1c14a3U,
  0x3feef0d83fa69a0aU, 0xbe0a2e0240201c82U, 0xbeb85d32bf56279fU, 0x3ed3db25bed569beU,
  0x3e05e7333fbf7040U, 0x40002f7f40182d8cU, 0xc0453329bfd5087aU, 0xbf91fe47bef23fa1U,
  0x405f0c32bca8a04dU, 0xbf8854c8bfb6cb9aU, 0x4008c9373ec79989U, 0x402f9da24001403aU,
  0xbf6e0706bee9b9e9U, 0xbd8ff095bff9923dU, 0xc013df443f95ffbeU, 0x40125b99bf5ed2b7U,
  0xbe86159abf6aaa01U, 0xbda134babf30c2f5U, 0xbd932ddebde1b50dU, 0xbdd31ef73f17f746U,
  0x3faca332bd360e47U, 0xbe5848663fa1eff5U, 0xbf3f129abebf83cdU, 0xbde220f3bfe05cd1U,
  0xbfaf81fe3e294420U, 0x3fa12a95c03413ccU, 0xbf47a3d83d2e79e9U, 0xbd770d893ff31635U,
  0xbe279e95bda2097fU, 0x3fcd24763d0f1c7eU, 0x3ee7005d3f3714c3U, 0x3f4c587bbfe87e9dU,
  0x3ea9bf2fbf336479U, 0xbeb7884bbeedbf46U, 0xbe2b02fa3e8a16adU, 0x3ea3fd0c403642d9U,
  0x3f79f42bc042da5dU, 0x3fb97c09c06e33dfU, 0xbff49f8fbfab5603U, 0x3f2ae22b3e9df683U,
  0xbdac71f5bf966263U, 0x3e9e9b903fbcfbddU, 0x400c99693fc567a1U, 0x40155f1c3d05878bU,
  0xbf4c94f24069f8e5U, 0xbea588e9c04a23f8U, 0x3f023eacbedb3522U, 0x3f342742bf552362U,
  0x3f07960abeabe675U, 0x3f73711a3ef1db13U, 0xbe24125ebe1ba3a4U, 0x3fa3645bbf160610U,
  0x3f69016fbe57190aU, 0x3ed38cffbefb0db7U, 0xbdf0c7c13f8c240aU, 0x3fac52dfbedc202aU,
  0xbf35f3a13dead777U, 0x3e509e7d3f295c99U, 0x3e9c1a033ef6a7c9U, 0x3e31117a3db2c5cfU,
  0x3e34b9913ebb3d15U, 0x3ed235ecbdb3002bU, 0x3e2b8c133f03259eU, 0x3e1ce977bdc7424cU,
  0x3e36252b3e80e8e0U, 0x3f19488c3f07f5f1U, 0xc0369d583f1657f6U, 0x3fbbf5aabfc2b029U,
  0xbfdd2a8a3d1b7c3fU, 0x40667867c0004787U, 0xc00fba2dbe8df117U, 0xc09c4f9d3f5f0450U,
  0x400df4713fa9bed9U, 0x400f6798bec7976bU, 0x3fe77ae1402763a3U, 0xbf870186c00b3eabU,
  0x3ead6bd4bd8a6cfcU, 0xbd21d1b0bf529e85U, 0xbf800d2bbf21d432U, 0xbeedd0353d84245fU,
  0x3f12818d3e49e5d6U, 0xbfffd2073da567c4U, 0x3eba7eda3f24d1feU, 0x3f82db80bf96e8e4U,
  0xbec062523f246510U, 0x3f5954f9bea93c0dU, 0xbf83e5a9c038fd6dU, 0x3f6ef519c004321cU,
  0xc09c963ac0c06b78U, 0x405872a540325bbcU, 0xbf521642c018d1bcU, 0xc0a44e173fd6cd39U,
  0x40288955401be214U, 0x3fdc59ff3f6ebafeU, 0x3f83ea1040018602U, 0xc0666652c04508f4U,
  0xc01abc433e42caf9U, 0x3fb607aa3f459690U, 0x3fbe4ef5bf855a2eU, 0x40732e254038f3faU,
  0x4058a11dbfc8de59U, 0x3ee49cc5bcaeef85U, 0x3f8d8180c08a2303U, 0xbfc342c64057c50dU,
  0xbf6646713de17f34U, 0xc0961315408bdff7U, 0xbcdf3f1bbfa6f45aU, 0x3fb721e7bff7599dU,
  0xbf01c781bfd383d3U, 0xbd310439bebdf91cU, 0x3d28ad0dbf7a5c6cU, 0xbf86e2163f8d6412U,
  0x3fef5fdb3fc4b36bU, 0x40235fc3bccaef4dU, 0x3f3c1c5240217315U, 0xbc2d5b86bfdfbf00U,
  0xbea3eee43fdc0c89U, 0xbf2e670140028c11U, 0x3f75c40b3eec0d21U, 0x3d163a0a3e7fb824U,
  0xbf2c899a3e65c6c7U, 0x3dc568e4c017be0dU, 0xbf89e8093dbeddcdU, 0xbf2e078dbd8d17f4U,
  0x3e1fba95c053af8fU, 0xbf9962933f7cc88bU, 0xbdfeb36abeb826faU, 0x3f04d5ad3ffbac50U,
  0xbefbb70d3ea32bebU, 0xbecdce12bf28469bU, 0xbeb54462be124045U, 0xbe81f1b63f0dfa0cU,
  0x393ffa763f1ac5ceU, 0xbed3ed3e3ebfc43cU, 0x3faf8410bf946242U, 0xbd80b34a4009860bU,
  0x3f259e0e3f66b390U, 0xbf2c12383ebad38eU, 0xbf36da40bf2d6485U, 0x401905f8bd950ad8U,
  0xc0017d0b3f71d796U, 0xc008661cbfb00ddbU, 0x3eb83324bf86cf6eU, 0xbea2495bbfc9c349U,
  0xbf4410193e386746U, 0xbff0f3b4bf98406bU, 0x3fee9ff23fa4af5fU, 0xbdbf751b3f38ebffU,
  0xc07263d2bf5161d3U, 0xc02c4018400d4090U, 0x3f805129be8ac817U, 0x407542753ffd2229U,
  0x3e98e3e6bf334cb6U, 0x3f3cf018c0523747U, 0x3f68b025bfa9df74U, 0x40972a2c3f8c3cabU,
  0xbff33c603fa3ac69U, 0xbe96bf76bff46cbbU, 0x3f7084a23e8d388fU, 0x3ee6e8cc408f2ba6U,
  0x4025535c40499350U, 0x3eb4b72b401a148dU, 0x3f44357cbffd3559U, 0x3dcc540b3ec7d9daU,
  0x3fd3b1d23f93e824U, 0x3e94347ec01c0df7U, 0x3e8f2144bf4392d5U, 0x3ebdd3343f6eabedU,
  0xbfe232ddbfc48befU, 0xbef175bb3e311eb7U, 0xbf01bc67bf1831b5U, 0xbec4e3433dd56021U,
  0xbd386da93ecadbd2U, 0xbe71fdb13f0c3c17U, 0x3f742a95bfa85ac0U, 0x3de43ab43f9b2ca5U,
  0xbf5bf452c092125aU, 0x3ef4f6443f75b8d2U, 0xbf64e2c4bf174aaaU, 0x3e4bed7abf0d7180U,
  0x3ec58697bf1afc42U, 0xbec3a2ebbeb4cbb5U, 0x3ebb0e003ecad688U, 0x3ebc235ebd9d1a68U,
  0x3e581cb43fc56605U, 0xbf98c110c03e9155U, 0xbeb3fdda3fab6755U, 0x3d5acc53bd1be25dU,
  0xbf437cbb3f008bddU, 0xbfd56c893f20db30U, 0x3ee1f24cbf056961U, 0x3f8a9e2b3f33bcd6U,
  0x3f1c13283f90d14cU, 0x3d266d7d3f8ec60fU, 0x3fd50746bff5f64aU, 0x3ff49180404d1611U,
  0xbda05c803e0ba35cU, 0x3f02d4833e1aa3a6U, 0xbf2d02dabeebc6caU, 0xbdd6ad7abe84f0f1U,
  0xbec06f04be8f4aaeU, 0xbd6cbee7bc8dd9e7U, 0x3ea29b7c3ef578f4U, 0x3e140d0bbd4cb61eU,
  0x3db021c23e6965faU, 0x3e32fa133d4dd08eU, 0xbe7a5b08bf5ed605U, 0xbfaf104bbe1a0b39U,
  0x3f225689bf06ff46U, 0x4013235d411d74c5U, 0x4085e5433fe7c897U, 0x4031ed2d3fd42d2cU,
  0x3ce654c6bf99bea0U, 0xbeb09c2c3f2d0365U, 0xbfbf7f433f6b69f6U, 0xbf555f42bf71fd50U,
  0xbe428369bfce96c6U, 0xbea24057bedd5accU, 0xbf1ba202bc99beeaU, 0x3f1d30ff3f68c41fU,
  0x3f877eb93e7b35cdU, 0x3e4b53f23f1ffe1cU, 0xbe0a626abfbbc76eU, 0xbf111bfdc00c866cU,
  0xbfa9a0be3f65dad1U, 0xbf8aaf46bf9ca3f7U, 0x3e3a1ed83e91d70fU, 0xbdde8d6dbf52f77bU,
  0xbe249367be541538U, 0x3e6bf3253f2ae30aU, 0x3d3f5995beb13f61U, 0xbe060e35bf016aafU,
  0xbe714579bbfcf1c6U, 0x3d5ce50abe9ae7ccU, 0xbef86a8fbf101c29U, 0x3e2deaccbe8fe8c6U,
  0xbe4d7bedbebda106U, 0x3f90c1e9be9fdd6fU, 0xbe925d2cbf050be7U, 0xbc3831b33ec759f0U,
  0x3e1454d6bee04d37U, 0x3dcfaf413f1997dcU, 0x3f8bfaa43edcf7eaU, 0x3fbd01793da2faceU,
  0xbd113cda3fd31faaU, 0x3e1c8045bf691488U, 0xbec76114bd838c4eU, 0xbf1f698f3e288a48U,
  0x4024e56a3f03db86U, 0x400ff46a3fd99b31U, 0x3fcca91b3e77afccU, 0x3ea4c0a4be8d51abU,
  0xbf640168bec99231U, 0x3e1323ab3efe4ceaU, 0xbfd2b9f73e917a1cU, 0xc014fa7ebe2535b2U,
  0x3e8b61753dc19022U, 0xbec82aadbeaa9391U, 0x3d06b9523d796fbcU, 0xbc985153bc4e6eeeU,
  0xbe2f4a573e8bc63dU, 0xbeff9f8dbe582091U, 0x3d17b42abeca5273U, 0xbe896377be540101U,
  0xbda06fc3beeacdfeU, 0xbcc59b0abd6c963cU, 0x3f37e8233e10aaadU, 0xbe8e8099be0277ccU,
  0xbf2ededcbdcce8b7U, 0xbeba8df93e9cb2d2U, 0x3beccf7dbe4696b7U, 0x3d7b5d0ebe2821b9U,
  0xbc80e4343ea850c8U, 0xbc3e7f50be039847U, 0xbdc7374fbee971e1U, 0xbd9ebf133e530aa3U,
  0xbf31bd933fcb31adU, 0xbf303ee4bebea1f9U, 0x3f2957ad3f0c5e30U, 0x3f0f173e3da01f75U,
  0x3e50c38a3e580661U, 0xbedbf1fabe24177dU, 0xbead24ebc00fa5a7U, 0xbf0eb6153de22732U,
  0xbfad9cebbda37a2dU, 0x3e18f8b33c3ec391U, 0xbe45ccaf3eb5f64dU, 0xbd7896d53e808a97U,
  0xbdb341c93d803fd8U, 0xbc06c14c3bc365ccU, 0x3cbded553d4971aaU, 0xbe39b5173d234ee6U,
  0xbe848d75bed42b43U, 0xbdc73265be906d69U, 0xbf0075a3be82125bU, 0x3dee4ccf3c1bebc1U,
  0xbd744236be8d1930U, 0xbeb4495fbc114a3aU, 0xbf07e6afbe31a5ecU, 0xbf2d2fa6bf0c3fd9U,
  0xbf3987233dcec168U, 0x3c15fd2b404e7a74U, 0xbe3aeb983f2823aeU, 0xbea5e197bd06b70eU,
  0xbe1835febe538c27U, 0xbe84db313e8ecfffU, 0xbe39151d3d3a767aU, 0xbd04774d3d93ff47U,
  0xbcfbd08cbcb88a0eU, 0xbb50f4ed3dcd7b1bU, 0x3d3ce2083c43eff5U, 0x3cb473dc3cd667b0U,
  0xbdc8dc88bda54d25U, 0xbd193b05be13b2faU, 0xbeb0e14dbd6d50a9U, 0xbd644c7fbd9a220cU,
  0xbf08fc1b3e9b16ccU, 0x3d9b81a83dbe6ea4U, 0xbdec7afebe889b20U, 0x3b360734bda76a63U,
  0xbe0a489ebc0e0890U, 0xbece49a7be2bb759U, 0xbd062f673e0f32b4U, 0xbdbfbf33bd01b8d8U,
  0x3e5592d2be7ab7e0U, 0x3d4a92f03dbb4dc7U, 0xbe02154bbe36572cU, 0x3f580f27bf551fc3U,
  0xbee0eb61bf3ceef2U, 0x3f07ac0d3f23e835U, 0x3efdae4bbf0f2541U, 0x3be0a3133ecf0300U,
  0x3edcbd633f208638U, 0x3fc3cd32bd883f77U, 0xbee33d973faab5e2U, 0xbd781783bf9ec22dU,
  0xbf1ad43bbf6bc68bU, 0xbd00f33dbe3e02e7U, 0x3f27607f3f1375b6U, 0xbd12ea333d7b6021U,
  0x3e31f116bdad0712U, 0x3ce7b64b3e979a52U, 0xbcc45e92be2ac6a5U, 0x3b7f831cbe08c075U,
  0xbec08aca3e0adee0U, 0x3ef8f4a6bd1ceeaaU, 0xbef25ef5bdfd760bU, 0xbe2e1256bf043c53U,
  0x3fcea288403807b8U, 0x3e76a4983f47a7a4U, 0x3f40354e3f3eff7bU, 0x3f2f7c2a406491acU,
  0x3f1e3591bf52712eU, 0xbec5a2e9bfe36c43U, 0xbf35e4553f3f6059U, 0x3e816d68bfdb895fU,
  0x3f1faae13f9bf10aU, 0xbed52c97be2ab3f6U, 0xbdb4dfce3f007617U, 0xbf88716f3ed9e2e4U,
  0x3d96fb573f2160cbU, 0x3d69c1b03f542180U, 0xbf091a593dee788eU, 0xbf09c5293d5ca917U,
  0x3f863681bf220f05U, 0x3f2563f73f6e8963U, 0x3f17bff9c0033a46U, 0x4018f592be11e337U,
  0xc0d3bc50c0a3bc2dU, 0xbff3c2cebef2322cU, 0x3fcf05f6be15e2e5U, 0x3f6d06703f3d5e71U,
  0xbdc397953fac133dU, 0x3f86eea63ea5a279U, 0x4012d43f3c5ed1d8U, 0x3f5b41ee3d9c1c71U,
  0xbdd26100bff1faeaU, 0xbfef88a9be2d1ab2U, 0x3ff12b9d3fc004b3U, 0x3e28148cbe99da31U,
  0xbe1d07063ff0b548U, 0xbedffc24be8db100U, 0xbfe8a301bfbcc520U, 0xbfd90f88bf9aa240U,
  0xbff119243fb10344U, 0x3e827844bf719d39U, 0xbfc7870f4065dd10U, 0x3e6eacc1beb001a4U,
  0x3fff64ab3d508999U, 0xbf0e5de83f0239c2U, 0x3e06c4af3f21257fU, 0x3dcf6fd2400af0e6U,
  0xbd612772bfdb40d7U, 0xbe55ff97bfee80ebU, 0x3f0a6c81bf1325aeU, 0x3ff5182d3f4ec686U,
  0x3d4a1e593e98e044U, 0xbdaadb0c3eaa051cU, 0xbce64778bfb95db5U, 0x3f2172fcbe9911deU,
  0xbe9a3315bc97fb58U, 0x3c2f7b8dbf5bcd3bU, 0xbcee74683e265609U, 0xbd0df807be08b1e2U,
  0xbe95dd4f3dc588fdU, 0xbea674f5be0a35c6U, 0x3fea60433eb7f489U, 0xbf2b97093f347054U,
  0xbf14b62a3e1da27dU, 0xbf5c1c02bdc6e9b2U, 0xbdbb2c71bd4a3613U, 0x3d2d53d3bf28ae9bU,
  0xbf77051dbf07a9fdU, 0xbed1c4b2bcec35b5U, 0xbf90285abffc9281U, 0xbf5e25fbb9881e09U,
  0xbfc0b930c0905b19U, 0xbf89b910bed504d8U, 0xbedf7010bd582231U, 0xc05ef898c0d11d8cU,
  0x3f16f6b53f882013U, 0xbf7f7dc2bf2e862dU, 0xbf18efddbf4463d3U, 0xbe327d97c05a9995U,
  0xbfa0a824bdfa463cU, 0xbe6f1d2cbfc6ea66U, 0x3edebf5840564813U, 0xbf75cbdc4012e531U,
  0x3f090db83edc06b9U, 0x3fe29acfbe9e9882U, 0xbfdb6aa33f2c5d48U, 0xc022b6c1c009103cU,
  0xbf8ea679beab43f2U, 0xbf4280753f2e6c64U, 0xbed236abbfeeab4dU, 0xc02efc1f3f59576dU,
  0x3ef99e2840596343U, 0xbff7bc03bdd37b79U, 0xbec2f9a0be7384fdU, 0x40000212be9f8623U,
  0xbfe3dc8f3eda8363U, 0xbf976344bf909b8aU, 0x3d299e0dbfa907eaU, 0xbebf5b0a3fe6bbc9U,
  0xc03be7cdc0058182U, 0xc072040b3eb903f4U, 0x3f92c7b3405ccd06U, 0xbfed90933fabe3b2U,
  0x3f9473933fb8b2b6U, 0x401af7ef406ed9f1U, 0x3f99a66b3f8af9dcU, 0xbd69fbe63f3517a0U,
  0xbef72a7bbf9308b8U, 0xbf432e1bbe9ad380U, 0xbfdd004dbfc5254fU, 0xbfe4e5ed3eb515d8U,
  0x3db5587c40116429U, 0x3edba6864033de5eU, 0xbe1678d7bde0fa4eU, 0x3dbc76d8bece837dU,
  0xbe74ea55be576f11U, 0x3eb8a88fbc647a75U, 0x3e4ffff53f329534U, 0x3d461b0c3f1037ccU,
  0x3f870defbf87cbe3U, 0xbe7f368c3f697e7eU, 0x3e15feed4048ed04U, 0xbf1ee5c6410aa5a3U,
  0xbf9079093fa01b9bU, 0x3f0d06373f58575aU, 0xbe8dab0f3f313e82U, 0x3eefef753f88b194U,
  0x3f542f95bf92494cU, 0xbe8b55ec3e6c616fU, 0x3ebf7b6bbf935ed3U, 0x3f8871b841057b87U,
  0x3bd1b33a40891623U, 0xbf205f9fbce0cc91U, 0x3f11b428be80e6e4U, 0x3dab52983e914cdfU,
  0xbf14dd213e826885U, 0xbfc01203be32cfd9U, 0xbe08e5343ef0b0d9U, 0xbf286eaa3d0b6bb7U,
  0x401c1bc4c0218ea8U, 0xbee3d4c140909579U, 0x3f02b08e402fe5aeU, 0x3fed2c06bf8220d7U,
  0xbe86b152c002c652U, 0x3fbcadc23f13c0afU, 0xc01f0cb1bf6959dbU, 0xc020a1b0c01deb22U,
  0xbf4184a03f5fcc8fU, 0x3f8448a43f444264U, 0x3f5e39283fbc3d18U, 0xbfdb8d0cc0ec1634U,
  0x3b0ac7353e59fdb4U, 0x3e104c5b3dbbb170U, 0xbee82c973dc65033U, 0xbfc8efcec05cd4d0U,
  0xc0472067bde46e87U, 0xbe19b41dbdc754f1U, 0xbd5017db3d494825U, 0x3dd883fdbfd4729bU,
  0x3c6d54783f232d1cU, 0x4031a50dbeca411dU, 0x3f69b35d40082178U, 0xbf14c8d33c6f03fcU,
  0xbf728fb5bf0ee17dU, 0xbf38096dc108621fU, 0xc13b0b37bd7aa12dU, 0xc011be60bfb194beU,
  0xbf8b5b353e9f6c89U, 0xbde37cf43f3aaeb7U, 0x3d234d37bebf82ccU, 0xbf662309bf05e6ecU,
  0xbdd7acbe3eaa5724U, 0x3b6226a13e9f600cU, 0x3eabc04ebde6491aU, 0x3f03abab3f3a72f2U,
  0x3e7419353e8d0878U, 0xbd386507be831438U, 0xbea76b78bea0fc35U, 0x3d328245bfc44ea8U,
  0xbf1534153e0f6400U, 0x3dba0368c05b8505U, 0x3f08a8263f0f3c93U, 0x3e00104b3db5dab6U,
  0xc03f6cafbf090d68U, 0xbe8024f6be488a1aU, 0xbed841eabe75d959U, 0x3d6545c4bf060674U,
  0x3ef1be4d3fa52107U, 0x3f164ffd402030eeU, 0x3fd85265bec0edd4U, 0xbf01833c3e5f5c55U,
  0x3c4165ee4043e1a6U, 0x3d84b0863fa1bde2U, 0x3dd9ca82bf24300fU, 0xbfa59b5abce73b66U,
  0x3f2d3b193bc264a4U, 0x3f4fa5613f3cd49eU, 0xbf041bdcbac13bcbU, 0xbec12a6dbe565c97U,
  0x3ffe9b64c044d37eU, 0xbe257a683f37841fU, 0xbe24e22abf0172c3U, 0x3c70702fbd099e33U,
  0xbe296358bcec8c88U, 0x40381b774133ddddU, 0x4074af623ce55568U, 0x3ec040c73e5d309fU,
  0x3e4294ac3d26938cU, 0x3d4b7dc03f294ab1U, 0xbcb797063d86c208U, 0xbfdea3d63cf36212U,
  0xbfb07c60be395adfU, 0xbd561a1cbe24e726U, 0x3ef3b2ce3f3fa571U, 0xbe18d9c13ef332d4U,
  0x3ef78fa73ef85960U, 0x3e92933b3f2c330dU, 0x3d0dcb0ebef906c9U, 0xbe00f9fbbee35c78U,
  0x3ea7c5f23c91b8bcU, 0x3fb2c7863dd348bdU, 0xbfdcd18fbf9bbc41U, 0x410d21c8bfea9a77U,
  0xbfc78930c003e94cU, 0x3f49efb5bde6b44fU, 0x3ecb29adbc06eba5U, 0xbed4989c41183616U,
  0x40b39fb540304645U, 0x3db5d0c24089534bU, 0x3fa4ccdd3f4e2db7U, 0xbf4da8ae3e83e2c9U,
  0x3f98cc424034d056U, 0xbe4c4f934029cab3U, 0x3f9768923ea4027bU, 0xc043bd5d3fc15c76U,
  0x3fa11a75bf534da4U, 0xbdc80b00c08d64d1U, 0x3f8d1c25bff1678eU, 0x40a74be6bf949a6eU,
  0xbfd24680401d38d2U, 0xbf87f058400f12f6U, 0xc0886bbb3f713b6eU, 0xc0b90ad73db6837aU,
  0x3fa72643bdbec0abU, 0xc09b7728bf76a6a1U, 0xbf529394bf2705bcU, 0x40037bd2bf966e56U,
  0xc05f0f21bf5f3140U, 0xbe65a105be3da6baU, 0xc09d4afac0b186a3U, 0x3fc0b872400af73aU,
  0x3e89c75e401ad561U, 0x40aaf39a3eac4ff8U, 0xbf5f5e3d3fa6f647U, 0x4006e3064115dbe2U,
  0x413a382f3fb58fd3U, 0x3fc0869e404445f8U, 0x403b4d6bc09ddc7aU, 0xbf3cec50bee528d5U,
  0x40cb0a223eb5db0eU, 0xbf843ca3c09ca91fU, 0xbd4ef574bda94f77U, 0x3e01d7d53e44db1dU,
  0xbd820c43be95fc78U, 0x3e4da2f53e1c60bfU, 0xbdd3a3433c03f19fU, 0x3dfcf251be45476eU,
  0xbddcc58f3cc19303U, 0xbe56e344bcf7203bU, 0x3d83c0473e1e9395U, 0xbc02a612be8bf4afU,
  0x3da1b437be6345dfU, 0x3c8550483e25a9e7U, 0xbd1fdc903d5a9d25U, 0xbe73cc4cbe7c402bU,
  0xbe715a543e09837aU, 0xbe5569ed3e47f430U, 0xbe258951bdbc1c79U, 0xbe25730dbca7bf61U,
  0x3dae3d14be89cdb4U, 0xbe1416333d6b0e02U, 0x3e907c75bc73cca6U, 0x3f129550bf2f26eeU,
  0x3e310a5cbeb35189U, 0x3ea8dee53fdb39bbU, 0x40df0d89be2c43a8U, 0xbd4df822401e07f3U,
  0x4019ff5b3e5e2422U, 0x3d1df3b73e6590c0U, 0x3fac4f3e4017bc11U, 0xbf20309b3f679185U,
  0x3e3d388a3ce31976U, 0x3eaccfe1bdea3908U, 0x3de514d23dc183f2U, 0xbeedecad3dad1f1dU,
  0x3ea364fe3e147edbU, 0xbd2bc01ebefc102aU, 0x3b90e6d5beb6358dU, 0xbe91cbe03eb936caU,
  0x3ebfd5ebbecac8adU, 0x3e9abed73e60ec37U, 0x3e284c6c3d565c13U, 0xbfbea0593e37f32cU,
  0xbf54346f3c95b59dU, 0x403ea4b44085d063U, 0x3ee4ff613c4b6635U, 0xbe768dce405d9c71U,
  0xbf6e6d4fbe98bd47U, 0x3e290ac6beb19f6bU, 0x3e346f803e55553cU, 0xbe3f88f2bf442b26U,
  0xbefdb4b0bddedd44U, 0xbc5d10d63d269878U, 0x3e15c4593cc7c92eU, 0xbee404f7bf8ec353U,
  0xbd5f961fbcefd5a7U, 0x3d48c9a43d91e4e4U, 0x3e539eb23da55c7aU, 0x3e450ad23daae151U,
  0xbdee419ebd5f8cfeU, 0x3ce62a37bd95a5b1U, 0x3e095ede3d4f21c2U, 0xbeeee9c1beafadfaU,
  0xbe8b84793eb043bcU, 0xbfa60c403fcf96c4U, 0x40bc63f93e17015dU, 0xbd17aa00409436f0U,
  0xbe96acd03e337b2bU, 0x3d7272403e06e580U, 0x3e8144a53f765561U, 0xbe34a67e3f3b633eU,
  0x3e75929ebcd52f66U, 0xbd9f69e33d2c9e3aU, 0x3efd7034bd64b245U, 0x3e92c613bf757c2eU,
  0xbe12aa57bef1d4d4U, 0xbdd1d73ebc518f60U, 0xbe0cff263d3ba441U, 0xbe8545a3be9a20acU,
  0x3eb7d9473e9ecd11U, 0x3f3ae892bebc9827U, 0xbe47a5e7be2e6b6eU, 0x3f4be167bf0beba3U,
  0x3deed067bd4b3983U, 0xbc07abba4017b381U, 0xc0468526bd07e711U, 0x3e50fdabc171f5ddU,
  0x401444dfbdc450e6U, 0xbeb96de53c28efbfU, 0xbe86c639bf42811bU, 0x3f5322083f6a2f44U,
  0xbebc4380bd7d22acU, 0xbda90bb6bdfa6022U, 0xbeb97f05be19557dU, 0xbe47d63e3ee25f2bU,
  0xbd840df4bdb5ef4aU, 0xbe1068efbe19c2c2U, 0xbd91c9083dc984e4U, 0x3d2adaa9be199518U,
  0xbdd7f0aa3eab06edU, 0x40996b883e437027U, 0xbe9b3dae3dba6966U, 0x3f8eff5abeffb797U,
  0xbf47502f3e0d618aU, 0xbf95826b3fd2897fU, 0x40797faabb80b7a4U, 0xbe6392e540db47baU,
  0x3e9efe183e6b1d5fU, 0x3c3058763e873b33U, 0x3f1cf8f13e2e6ca8U, 0xbe0e6b413f6d5262U,
  0xbf05f628bde44241U, 0x3cbd238bbd09e7f7U, 0x3f2957503deab1ccU, 0xbce0767bbf8d399dU,
  0xbcc447c9bdf8b005U, 0xbeb0596e3cf95042U, 0xbea032813db625c9U, 0xbe2178ddbf9d1265U,
  0x3d5819ce3f16375aU, 0x3f07301abe9b90f8U, 0xbd11a2363dcd70aaU, 0xbf893bd1bf73c701U,
  0xbf4162d2bf58607dU, 0x3fdc9a1fbf94226fU, 0xc0b71b323e1448dcU, 0x3ea3fff9c03a6a7dU,
  0xbf9867513cd009e4U, 0xbd190f35be2ad481U, 0xbe37775abeda93a0U, 0xbe28ba7a3d32df1eU,
  0xbe912348bc61f465U, 0xbd27a6e1bd1b5d37U, 0x3d4fdd1b3ec86d28U, 0xbe5f8f07be6c774eU,
  0x3e26de2a3ea430bfU, 0xbe8b2d8e3e57bc55U, 0x3dabc85dbe3a6cabU, 0x3e19003ebe33dbfdU,
  0xbea7e1ca3ecfc9beU, 0x3d501fba3d0224a0U, 0xbe4f4d0c3e0607e1U, 0xbd81e7503e5477b8U,
  0xbcce7ff8be8fe1fcU, 0xbe04fbba3e829fe6U, 0x3db178d4be47888dU, 0xbe3e54193e64d3cdU,
  0x3e7a2c353c43d431U, 0x3e3ca5e43e24809bU, 0xbb37cfb13e1f8d02U, 0x39cfc400bde93fefU,
  0xbe89dc603e50a988U, 0x3e59bb503e19442aU, 0xbdab6c87bd475ecbU, 0x3da07c683e07d5f9U,
  0xbe9832e83e411b65U, 0xbe290565be89a55bU, 0xbe0944953de4c0feU, 0x3dd81e22be35c195U,
  0x3e63349f3e3e3819U, 0xbe5ab2c23e37ae10U, 0xbe2b4390bdecaf09U, 0xbe5ee290bf0bf562U,
  0xbf3b6a8e3de2317eU, 0x3f696ae9be3e6a85U, 0xc0f86c8c3d579cd3U, 0xbdba4227c040595eU,
  0xbf19cee3be444ec9U, 0xbe89317ebe3cdc77U, 0x3ebf0c86be9388dbU, 0x3e6fb3303e10b0deU,
  0xbf1557d23f015b8cU, 0xbec3291a3e109c1aU, 0xbf1bb780c0139c59U, 0xbcc4fa93bf230365U,
  0x3c5cbf823fb97f22U, 0x3e7d76423e154edeU, 0x3dd6292a3e1b3bbeU, 0x3eee752fbdaf2cb7U,
  0xbe82eea13cad2654U, 0x3f1aeb67bd98af04U, 0x3e7bceef3d6c8af3U, 0xbfc67a963f420f36U,
  0xbe62c5da3c6ce509U, 0x4055483c40c05ddbU, 0x3f30fe26be56bb97U, 0xbe79bdcb40974e22U,
  0xbfc356cabda7e4dfU, 0x3e47a973bdd93b62U, 0xbe89651f3e1f3554U, 0xbe55929bbed93235U,
  0xbe9f7b8d3d72319fU, 0xbe2bbc9a3ac5c86dU, 0xbe04b8f9bd978877U, 0x3d6808d5bf7c112fU,
  0xbe773d0c3ebf67fdU, 0x3d6cf8063e0222d8U, 0x3ed61d4b3e4fddd5U, 0xbde2c7b6bda2e0dbU,
  0xbe4a39593e1798f8U, 0x3ff31d31bdc4d020U, 0x3d61ddf5bd3801faU, 0x3dd5a569bf0b14dcU,
  0xbe1748d23e9b1d1dU, 0xbf1b62613f4401acU, 0x40a952e4bdf2592cU, 0xbd53c67c40a36d83U,
  0x3c32e1093e1b8a67U, 0x3c8145873e17e38dU, 0x3eb3dc063ec55b55U, 0xbd542e1f3eafd77dU,
  0xbd6dc796bcd4c6f5U, 0x3d7a88fb3d68fa20U, 0x3f768f3e3dbbb0b3U, 0x3e2605903e1ba33eU,
  0xbe412b90bcfccc53U, 0xbe7aac723d4cf4efU, 0xbdf55f2cbda425d7U, 0x3ce5a0e5bf0b3261U,
  0x3e6bc0b73ea4b1bbU, 0xbef0eac5be92fb75U, 0xbdbf593f3de66e3cU, 0xbebedfe3be96a791U,
  0xbf6289aabe6341baU, 0x3f9828e2bfe85880U, 0xc0a440f8bd81cf3fU, 0x3e0c6784bf983d7aU,
  0xbf0526f6be1c3f5aU, 0x3db8e110bddff87fU, 0x3e118bf63df05d71U, 0xbd69e16cbf2b8c61U,
  0xbecfa2873ed5e28eU, 0xbdfc3f0a3ee26a33U, 0xbe9581823d117fafU, 0x3d211b523e172a99U,
  0x3ea621333eb87fdbU, 0x3e8623fcbd85023eU, 0x3e830f123cc41b76U, 0x3e7685cf3ef2d997U,
  0xbd2b0b46be634159U, 0xbe25f4c83d08260cU, 0x3da9dffabcf2a7bdU, 0xbd8366b2bf197c19U,
  0xbe1805833e889a59U, 0xbf8fcace3fd2ded7U, 0x4099711dbd894137U, 0xbde1219b40d1cc69U,
  0xbe8855ae3da23e5fU, 0xbc3adc4d3d7c942aU, 0x3e95b43f3eb09388U, 0xbd85dc203f079520U,
  0x3b56fb113d084328U, 0x3c298b12bd888ce2U, 0x3f5b3f113d37c1f9U, 0x3e676ac63dab211eU,
  0xbde65dbe3b90a18bU, 0xbdc132213d18853aU, 0xbd99e929bd81a00eU, 0xbe058b3bbe440f87U,
  0x3e2335393e3467b4U, 0x3d7e4c49be603f43U, 0xbe419690be2cc5a9U, 0x3f7bb602bf582fbfU,
  0xbf88bfea3d0de44aU, 0x3f9361583ed9824cU, 0xc09065b13e0f4cb2U, 0x3de8bd1fc0291bd0U,
  0x3f507c36be562b7eU, 0xbec5f825be2f9c0eU, 0xbd8828f2beda0dabU, 0x3e5f1262bcd402a4U,
  0xbed4dd3a3ea010a4U, 0xbd56e5d23eb91945U, 0xbf054195bbc876acU, 0x3d5cdc59bee9a1c2U,
  0x3d3ab623bdb28887U, 0x3c8f5b243ef2c82eU, 0xbe37f836be15a972U, 0x3ed9c9e4be2a23bcU,
  0xbe4c440d3dae58b9U, 0xbf1437c93ebd0817U, 0x3d56fc973d11631dU, 0xbf9aaa813e0b115cU,
  0xbf81ca1bbe359c12U, 0x3f3ee0edbfdcd356U, 0xc0e11e4a3dc80571U, 0xbdc2940740051608U,
  0xbf82161ab98242c0U, 0xba010cb9bd80db6dU, 0xbd707bb9bd9b424eU, 0xbdb391b9bee29c2eU,
  0x3d14b2b5be97df37U, 0x3e14e54dbe10e8e2U, 0x3dfe88103d473bb7U, 0x3e954bd8bf06eadbU,
  0x3de411b43e09cedaU, 0xbe71c3ecbcb59be4U, 0x3e5e6476bd982118U, 0x3d51bc91bf9f1848U,
  0x3d93355a3e432862U, 0x3fba254bbd1ebe8eU, 0x3d548fbcbb3b36aaU, 0xbf1e06c8bd08959bU,
  0xbf8ee9cb3d4c17e0U, 0xbc183725bf21517dU, 0xbfd299173e230739U, 0x3d958c2b3f988ebeU,
  0xbfa507a93cc6cdbbU, 0x3cba3af5bdbb76aeU, 0x3e1deb64bdc737e8U, 0xbda11e56bf1a9cacU,
  0xbebd3f67bdf18763U, 0x3c4930713d1eae43U, 0x3e8fc2633d87aa79U, 0xbdac9e20bdb0e8fdU,
  0xbdd6afc7be63f27fU, 0xbd05c73cbdb7968dU, 0x3c32613a3d81a83dU, 0x3b3272053d86d174U,
  0xbcf4cc173d0edf07U, 0xbb2d09363e133726U, 0xbd178bfbba235a6cU, 0x3d7205a2bf1b3f65U,
  0xbe297b963e98ce96U, 0xbef7290b401f6dbfU, 0x40ba44353d6f9f68U, 0xbe04a5b340c6d2a9U,
  0xbe4d1c5b3e19dce5U, 0xbd20dcd43e46462fU, 0x3ec7b3e53ecda962U, 0xbd333ca13ece88eeU,
  0x3d889e71bd8e6422U, 0x3d195fe3bdc2223fU, 0x3f711cac3d6b085bU, 0x3e12c6873e3d1670U,
  0x3ce546a1bdc0343aU, 0xbd4357e5be035183U, 0xbdf8dd04bd8a3508U, 0xbd8ac6aebf53852bU,
  0x3ea4a45a3dac3636U, 0xbed84312bddd4562U, 0x3e5c77fe3e383bd0U, 0x3dd89e563e28cbb6U,
  0x3b8e570dbe0ae531U, 0x3d9c84c73e2f0e7fU, 0xbb9058553dc9d510U, 0xbe73df7cbd081e15U,
  0xbd822a91be42324aU, 0x3df58e273e32fc05U, 0x3c3b5792be251b6bU, 0x3de86b67be6ef9e5U,
  0xbe22bb4d3e2d6ae1U, 0x3e21c76cbe060851U, 0xbe564962bd9bd53fU, 0x3cc14a4fba7182feU,
  0xbe814101be211503U, 0x3ba193bc3d95fd24U, 0xbe889cf3bdd2b375U, 0xbdbd41463dc0958dU,
  0x3dccf4263caee0b4U, 0x3e157115bce9ef0dU, 0x3de58245bdd9dc88U, 0xbd96b8c63f3d614cU,
  0xbf66c34dbe063c3bU, 0x40227a1140952e49U, 0xbfd2dc37bdb2e56eU, 0x3d98963340ce2f97U,
  0xbf94635ebcfb73b9U, 0xbe269c61be067f14U, 0xbf645098beff785eU, 0x3e4d0fd0be488591U,
  0x3eba3f143d465256U, 0x3d034ed73d9b2e17U, 0xbec503efbdaea357U, 0x3ea6dcb5bf9043d9U,
  0xbe787b4b3e53b3c7U, 0xbca0c1e03e7e120dU, 0x3e716d923e1d9acaU, 0xbc531bf5bf5b9a50U,
  0xbe2bfe483d798f4fU, 0x3fc9ee6ebe53471fU, 0xbe4699ac3c87fa2fU, 0xbd3798043d42625aU,
  0xbe7dd920bcb19516U, 0x3e83c6f13dae5bfeU, 0xbe7236773d05a108U, 0x3e154d2f3e511355U,
  0x3e5f71ebbd88868aU, 0x3e4fad173d54f625U, 0xbe383e003e2caf4cU, 0xbe22ff31bdd48d5cU,
  0x3d7da3fabddb0efeU, 0x3e5d745ebe1460eaU, 0xbe7c408fbdcef965U, 0xbe5beab2be1e70feU,
  0xbde832ec3c8d51b0U, 0xbe30adb7bc886436U, 0xbd62f7633ca25f42U, 0x3d4c9ea13e39f513U,
  0xbdbf2e5b3dacc0acU, 0xbd1af6223da1b7f5U, 0xbd490ea1bd760fafU, 0xbd79cc1fbfa271dfU,
  0xbcfd2d8f3ed22196U, 0x3f288d85bf038027U, 0xbf069452be40c023U, 0x3e2856b2c000d643U,
  0x3e1dfe22bdea8637U, 0xbebd18ce3bf1b1f1U, 0xbfe628ecbf20e2c6U, 0x3e1063bd3d1b18a2U,
  0xbe8529623e421bfcU, 0xbe97a0b6bca70293U, 0x3e1b3c703e6b6cdbU, 0xbd68fadbbeaea336U,
  0x3e4716e9be81552dU, 0x3a57c1cbbe840787U, 0xbe7f039bbe5c8520U, 0x3e2978473de4631cU,
  0xbcd0d9f83e7e7996U, 0x3edcd8d13c8d8d05U, 0xbfea79413dc7d385U, 0xbf04cd04bfc31c47U,
  0x3f0fd5273e5b8000U, 0xbfdf45c6c00f6ae4U, 0xbf2be8e5be270a06U, 0x3ed94afd3ff0be73U,
  0x3d87cef03e1a60b0U, 0xbeca909f3dd60434U, 0x3dd03d49401a5e33U, 0x3d7518f73eb2ab52U,
  0x3eefbb4dbe77587eU, 0x3e88dba9bed5c848U, 0xbf66dcecbe15e313U, 0x3e2ec69a3f31d656U,
  0x3e52969dbe33b7e3U, 0xbf1640bcbdd945daU, 0xbed1723bbd6cddf2U, 0xbf118b63bf252dcfU,
  0x3f41baa93f041a42U, 0x3e87467bbe32ec9bU, 0x3d239f9a3dfc9d75U, 0x3dee2dd3bf321f8bU,
  0xbf457c8ebe8a8612U, 0x3fe32dee3f2477e7U, 0xc00359553e58c9ffU, 0xbd1fcabfbed91dcfU,
  0xbf9b6cdfbe5753cfU, 0x3daebea5bdfd08fdU, 0x3ea709923edfa265U, 0xbe9724efbf81286cU,
  0xbe0fbbf93e567204U, 0xbea380143e0f77b3U, 0x3d42abae3dd8afcbU, 0xbdd8d7e4befc9d3aU,
  0x3e5209d03e6f8818U, 0xbb20570b3e958db5U, 0x3dbc793fbbb09ea5U, 0x3ecd55fcbe656a59U,
  0xbea6bd9f3e9aa1ddU, 0x3c6fab39be170c01U, 0x3d15753f3cf2f0b7U, 0xbc066300bc8dd0c0U,
  0xbd5d8eae3e333f2bU, 0x3e03cc823dbbd9ecU, 0xbbde88e9be4badc0U, 0xbe1ffb293ddd1b53U,
  0xbe013687be004f4fU, 0x3d9906b5bc9e12e4U, 0xbdaeb3743db0d045U, 0xbe5f8fed3dd627c5U,
  0xbe5f59553ced9a63U, 0xbe4911ce3e128ac3U, 0x3e41df4bbd6de333U, 0xbe0fe32f3e56c42dU,
  0xbe601dcc3d4c30a3U, 0xbd5e0f193e0201d2U, 0xbd8be65fbe268381U, 0xbda288aebd4ac37eU,
  0x3dbee1ef3e3bc573U, 0x3c713ec8bdb3b7a9U, 0xbd13be9f3cb0890bU, 0xbf7d0ea93f29de89U,
  0xbe47fddabc418c56U, 0x3fd39f2540aa69b9U, 0x3d62356cbe29107bU, 0xbe10a5e43f57793eU,
  0xbfb57ed7bcb81340U, 0x3e2fa86dbe27d74dU, 0x3de488c03e23e7b2U, 0xbe60c8e5bf7c6bd2U,
  0xbeb1bacebd891f41U, 0xbe8212e8bd6aab4fU, 0xbe5691343d684ec4U, 0xbdd9ee8abf2b7ce7U,
  0x3d42b1b4bbedecf1U, 0x3d82b3a83e859870U, 0x3e1a24d13db963f0U, 0x3d9a5a283daa98f4U,
  0xbed3dc5b3e286e6aU, 0xbe5900b4bcce2ff5U, 0xbd2529f8bdc6f91cU, 0xbe135037be106262U,
  0x3e033415bd5c790cU, 0x3dab89c83d5bb3a6U, 0xbbe5d299bb85b0b4U, 0xbe5cfafd3e84544cU,
  0x3dba6c53be7bbc01U, 0xbddccd363e377271U, 0xbe1a0566bc6d0ce0U, 0xbdcf899ebdb65701U,
  0x3df085003e0bf322U, 0x3de2439a3e54a946U, 0xbe7540d03c187e09U, 0x3cfafde8bdc97cb6U,
  0xbe6b7e893e1d1644U, 0x3d8c792ebe471632U, 0x3cb860143d739244U, 0xbc1eddd6be90c5beU,
  0x3e6fc009bdd0c134U, 0x3e32d34abde52107U, 0xbd71b2d3bd3cb6e6U, 0xbdfacf623e576d5bU,
  0xbf5760d5be887ed9U, 0x4089d1c6410550f2U, 0x408332d23dd8a36aU, 0x3db626a63fc93365U,
  0xbe7dbf9ebe9c7f2dU, 0xbe053b8ebea98381U, 0xbebaef48bf4ab2a8U, 0x3cda7b44bf7fcfafU,
  0xbef40a1e3e363547U, 0xbe5c44a83c0ac0a1U, 0xbe2bcfcfbdfc4666U, 0xbd266e5bbee2f850U,
  0x3df4ede33e7070feU, 0x3ecc8ca53cd397b0U, 0x3e7e7b28bda2ea23U, 0x3ef5748f3eb356b6U,
  0xbeb5d3babee9c41eU, 0xbf4b9bda3e989d7cU, 0x3cf0a7d5be2dd461U, 0xbe093dedbe15228eU,
  0xbf998834bec8d696U, 0x3fd9110d3f704223U, 0x3dddc0a83e87b851U, 0x3d97df8c3f0f7f6eU,
  0xbf4747acbe35f50bU, 0xbe592e58be7d8ad2U, 0xbe5e96e2bf2936e4U, 0xbb11c003bf4b93deU,
  0xbe694b23be1621f1U, 0x3e26314fbd0521ccU, 0x3e962e873d89cfabU, 0xbdc72835beab9c72U,
  0x3a5568083d061477U, 0xbd8dc7623d911528U, 0x3e81201fbd28c5efU, 0x3ead48513d53463dU,
  0xbd4fe14cbdc766e6U, 0xbedf3cfcbdab808aU, 0x3e44cba8bc93b0abU, 0xbeceaa1cbea6e882U,
  0xbee70b023ee35dd6U, 0xbed05e093fc743a1U, 0x40d16547be2dee59U, 0xbda2d4714083e476U,
  0xbe19bf003e326841U, 0xbc9397b43da4658fU, 0x3e3399fc3f8e9a26U, 0xbe53142c3f301995U,
  0x3ea88374bd9e5df2U, 0x3dc54af13e7cb7c8U, 0x3ef4b6d9bd5e2c6eU, 0x3eae0ecfbf235c78U,
  0xbe90c1bfbef4d0f8U, 0xbebcf69c3e058864U, 0xbe0c2cd33c910c10U, 0xbd9b6f4ebead7f5fU,
  0xbbf9c1583f0cd4e8U, 0x3ea192eabe7b127fU, 0xbe8250dfbc940b30U, 0xbe286eb2bdda58a6U,
  0xbf9b92e4bd4152e2U, 0x3f91dd6bbfab5edcU, 0xc0b9e9b23e1de8efU, 0x3e15264fc018dc59U,
  0x3dcb404bbe4de9c5U, 0xbe8cbea9be1860f7U, 0xbedc891ebfa3b744U, 0x3eecdf6cbea33c8dU,
  0xbefb94773e86dd5fU, 0xbe43516a3d7097daU, 0xbef67ab2bd6da387U, 0x3eadd6633ed938bdU,
  0xbcf88096bd2507c9U, 0x3e1106013e0e6ec1U, 0x3d121868bd5b582bU, 0x3ec01b773f0876feU,
  0xbebacc2cbc7a7ad0U, 0xbe25ccd13e3ce341U, 0x3d8d53793d600ca7U, 0x3e2bb0ecbef88ed6U,
  0x3d0046763eb1f3a6U, 0xbfbc219840085930U, 0x4090813cbd4b3b6dU, 0xbe016b4640e735b0U,
  0xbe2f9cbd3dac7e9bU, 0x3d3666683dde7572U, 0x3ee11ad63f22ec4eU, 0xbe221d183e276de5U,
  0x3dcb341abadc412fU, 0x3c5cdc42bc3427aaU, 0x3f48e4d83d04845dU, 0x3e1b8be0bea3b8f0U,
  0xbd93ac2c3c0a6825U, 0xbd9620f13e6025d2U, 0xbcc2965ebc448e8aU, 0xbea2869fbe3ce2c6U,
  0xbd61f0a53dcd9306U, 0x3de37febbe7aa890U, 0x3d0830763e19f9b0U, 0x3d1043f1be9f6ec7U,
  0xbe950e773e1ffc24U, 0xbf5f5e52403a2122U, 0x40f1d84f3e0a15c3U, 0xbd5be1d740dcad76U,
  0xbe65ea123d15c6b6U, 0x3de39f5abc569e49U, 0x3e3544403f4ff1afU, 0xbe353c303cc59d02U,
  0x3e96c7ffbe42debfU, 0xbc2b5cc93cb8433dU, 0x3f3bd08dbe7e7beeU, 0x3e25f9ce3d771d09U,
  0xbd195689bf03783aU, 0xbd7098533e46c0c0U, 0xbe21be263df176acU, 0xbdb2a0bdbe6f1e19U,
  0x3d94c4af3df1ad4cU, 0x3e1a3ce1bea3bf3fU, 0x3dac08f83ed94bf8U, 0x3cdccb973e9a8020U,
  0x3f52fcd9bf51c358U, 0xbf3fb048405e5cf2U, 0x40a23835be0b24deU, 0xbe4362893f96ebdeU,
  0xbf0e3443be1ddb35U, 0x3f2a4360be3d8192U, 0x3dde67e0403ce23dU, 0xbe8efebcbfca2be1U,
  0xbe17d3d1bd76324dU, 0xbe9426d4bc23c82cU, 0x3f180ef33bd289eaU, 0x3f4691c3beea24f1U,
  0x3e210c7c3e35814fU, 0x3ef22306bcc3341aU, 0x3e4f29403e3b1004U, 0xbd9c2e613f14412eU,
  0xbdaff91dbf03544fU, 0xbcdc87fe3c05d5a4U, 0xbe5e29e03e4144f9U, 0xbfd74de6be5c00daU,
  0xbebc64d4bf312979U, 0x3fdade723c15e25fU, 0xc137667bbc04a1d7U, 0xbe73cdc9bf0d10e9U,
  0xbfd3c1063c78641eU, 0x3e45a23abe0d9c4fU, 0xbd2a5de23ed05015U, 0xbf061d1ebe3bb613U,
  0x3d3e52babda99060U, 0xbd6d03ad3dba8b58U, 0xbe6453de3e33018bU, 0x3eadc9c7bf321965U,
  0xbe60dcc73fca1ca8U, 0x3d08fbd93d8cfdc7U, 0x3edc704f3a7fce11U, 0x3eeffdffbf914a64U,
  0xbe1f4a5e3c02ddf6U, 0x4071f3ccbd8cce2cU, 0xbd815b0abe2a8c05U, 0xbf1f23ebbf0dbb9dU,
  0xbe9327d03e4e8be3U, 0x3c2ec3313de479edU, 0xc0ba5426bd294389U, 0xbd9544fdc01962edU,
  0xbf966b20be75f98eU, 0x3af6c6c43b7b7892U, 0xbf4bb26c3f339deeU, 0x3e7523c1bf018d19U,
  0xbe6e2d4e3d3f3e5eU, 0xbe325bf03e7184c7U, 0xbecbeb07bf41efa2U, 0x3ec073a7bc3722c2U,
  0xbcdb62433e87ba4cU, 0xbc46f2873ed7935eU, 0xbdbabe573da18617U, 0x3d2e8b65bf98619bU,
  0xbe1b44d13e6e5140U, 0xbd934ebfbdc86d46U, 0x3e04be0f3d403843U, 0x3e0fd4dbbf01b3c3U,
  0xbcbd232c3eb68111U, 0xbf9b187a3faec104U, 0x408c7c2fbdd23d38U, 0xbde2f70040f58cb1U,
  0xbe32da403dc574ddU, 0x3d9ed7c63d898b41U, 0x3eea65dd3f132d28U, 0xbe0bb8db3e90c7e9U,
  0xbd30d89e3b918770U, 0x3d8df378bda9dc32U, 0x3f6cb8703d3fa874U, 0x3e055b9ebdb11a3cU,
  0xbdb2e7d4bb5d78c4U, 0xbd1c30f23d14940fU, 0xbea30bacbd258d5dU, 0x3d20efa5be4d5bf3U,
  0x3e079c29bbc53c2cU, 0x3e43dc27be1f7cd3U, 0x3e5f58a2bd98eed5U, 0xbe39381cbda30ee5U,
  0xbdd5436c3dabbd64U, 0xbe5180afbe6fc496U, 0xbdec0d02be6d1468U, 0xbe81dba7be62ebbaU,
  0x3e043b453e2f18b5U, 0xbb84de5f3db26eacU, 0x3d88cee03e67cc14U, 0x3e05b3143e2bdae1U,
  0xbe882bffbd6d115fU, 0xbd4c7fbd3d0eed7aU, 0xbddc9772bda4bc5fU, 0x3e23d050be3389ebU,
  0xbb0d0f39be5df49fU, 0xbe6fc0923d6b24f1U, 0xbe44b75e3de916c2U, 0xbe806b08bd9d2402U,
  0x3d9f7b52bd1c5c22U, 0xbd99572d3d628d97U, 0x3d167d34bceb679eU, 0xbdf93756bf177c59U,
  0xbdf5f2993e4e22b8U, 0xbf5c6f0d403739e3U, 0x40afb1edbdef4bddU, 0xbd964e5240c7c231U,
  0xbf1dcfce3d5c650fU, 0xbccb168d3dad0b65U, 0x3e74ae403e8d8c55U, 0xbcc42bec3f29ed1bU,
  0x3c7f2323bd50b580U, 0xbd6cba1dbc621df3U, 0x3f7057913ccbfdf6U, 0x3e92245dbbc8a7aeU,
  0xbcb7eaf6bdd0ed23U, 0x3980e2f83cf06903U, 0xbdb1d0d2bd8749ebU, 0xbeb849c3be47f947U,
  0x3e3760753d822babU, 0x3e9830cdbe53d1acU, 0xbea1cb1b3c2b3932U, 0xbeb739df3f867fd5U,
  0x3f68e938bc69fba7U, 0xbeb3e65440a2b3bfU, 0xbf90afd2be513390U, 0xbdd33e38bee28a3eU,
  0xbe0b98e13b9be60cU, 0x3e0d5a28bcda616bU, 0xbd5ad329be38b9a6U, 0x3db0de08bf647815U,
  0x3e0a003abe899a67U, 0xbde3e4b9be1636efU, 0xbea62e02bd4561deU, 0xbd5ad2393f157874U,
  0xbde55b5abd086344U, 0xbea63bef3df120a5U, 0x3e67d7813e893ccdU, 0x3e24cd4bbf868433U,
  0x3dcf76533f2d4702U, 0xbc9ee733be82b55eU, 0x3dbc9067be647159U, 0x3e0610b9bf4e1906U,
  0xbfc67ba03f2a9dd7U, 0x3f3fe3b940753bd2U, 0x40cb00c7bdc7af49U, 0x3e088834c0f085d3U,
  0x3ffbb626bd9ca9d9U, 0xbed17e36bdb5dba4U, 0x3e320fecbf80d11dU, 0x3e3669623f7c59d9U,
  0xbf043db43d7373ddU, 0xbe063436bc5756f7U, 0xbf0eb53abd2b748dU, 0x3ea944b0bf19e518U,
  0xbb549a03becbd614U, 0x3d9d07ecbb1c59a7U, 0xbf046bf3bd801d18U, 0x3eac998c3e11f7deU,
  0xbe0c2e81398cefc7U, 0x3fd0d637bd520e53U, 0x3dc7f016bd17203eU, 0x3d9d0833bf13e962U,
  0xbe6827283ed4abfeU, 0xbf3775293fd795d8U, 0x40b2117fbd4e4225U, 0xbcff16d540c1cd4aU,
  0xbea55a423dcbf537U, 0xbc36fe123d9f936cU, 0x3ecd89583ec4bf5aU, 0xbdb802073f1a7082U,
  0x3ce5fabcbc90b7cfU, 0x3d54c2c63dfe254cU, 0x3f7836873d9a745aU, 0xbd63b7513dc232a9U,
  0xbe692d7d3d9de7b1U, 0xbe0853b0bc0f8b1aU, 0xbe96f12fbd9ca594U, 0xbe6a0a4cbe5bdbf2U,
  0x3e01900b3e34cb1cU, 0x3e45076dbe1e7c6fU, 0x3dab31abbd07f2f4U, 0xbf280170be3faecbU,
  0xbee140da3d9f933dU, 0xbf8ffa213fdd8314U, 0x40eb5daa3db337bcU, 0x3cc019cc4080e91fU,
  0xbe7a48843d2ed24fU, 0xbe6cf6d73d8fb37aU, 0xbcc3897e401b9e19U, 0xbe1425fe3f254eb2U,
  0x3ec38afebe025546U, 0x3de8b73e3e150e3cU, 0x3ea2a34cbda5f394U, 0xbcd6a2cbbf85e838U,
  0xbde0e753be94fa3dU, 0xbead955e3e223962U, 0xbab41da93c98cbfbU, 0xbe28509dbea1b80eU,
  0x3d7fe54b3f01d341U, 0x3f25402fbebb60ccU, 0xbb9a91003de662f4U, 0x3e7f5b9abe3a7a6cU,
  0xbe3a2638bda72acaU, 0x3cb8dd20bd9e7e58U, 0xbe71f4a8be1d4f44U, 0x3e522b14be2b7d92U,
  0xbe3e00d4be5cece2U, 0x3d4606e83dd5e04cU, 0xbda0acfc3e41704aU, 0x3d97d56cbe0329e5U,
  0xbd6bc168bd3431f0U, 0x3e41232ebe79365dU, 0xbe820dd83df7ac38U, 0x3cc191f03e51a908U,
  0xbd0005703e0f4692U, 0x3d4855583d1d38d0U, 0xbde8d1803db6fc20U, 0xbe40db043e6d48c2U,
  0x3d00c6f8be83f2efU, 0xbda860c2be34f328U, 0x3d91f716bd9ea85fU, 0xbdd4c5b9be09a181U,
  0xbed86ac9bf28d8f1U, 0x3fc4efe5bf446d2eU, 0xc10bd6923e1daafeU, 0x3e5da0f13fd49e68U,
  0x3eabf138bdd06d7dU, 0xbdd363acbe76bcaaU, 0xbf846523befef5dfU, 0xbd6d00773e6903f5U,
  0xbe7ff7463e30f583U, 0x3d89ba82be56da5dU, 0xbf2efff63ce8cae6U, 0x3e7793b6bf362086U,
  0x3e71ddf93f55e0adU, 0x3bd1087c3c8bc7bcU, 0x3e604e33bdfb7ec3U, 0x3f0ac22bbd481501U,
  0xbec3540cbe1ad34cU, 0x3f85ac7e3eaace3cU, 0x3dae8dcbbe6544d9U, 0x3e3b0f4bbe0b722fU,
  0xbf1217423e1d5637U, 0xbffe97ac407505b3U, 0x40eda047bd1bf9abU, 0x3ca4e5c8408a2118U,
  0xbe951e3ebd59509cU, 0xbd30a73bbd7e1beaU, 0xbe1ed72940dfc86aU, 0xbddcbc633bb850fbU,
  0x3f5c26ed3c90c9d2U, 0x3db110313ca0dd7aU, 0x3ed52cffbe60fa45U, 0x3f0b4d66be6781caU,
  0x3e4252403edc00a4U, 0x3d6184653e793726U, 0xbdfa2826be660e5eU, 0xbddf63f5bdf8002fU,
  0x3d2f31e1be42b781U, 0x3da117afbe9c557fU, 0xbe4a8c593d2e8554U, 0x3d77c4033f541769U,
  0x3f7fb46cbeb7dfb3U, 0x3ec32927407011d2U, 0xbf50bec4be4382b3U, 0xbd87c4e1bf770ee1U,
  0xbee0c4143da290bbU, 0x3e0f12613d73d5abU, 0xbe028cdc3dd87b1fU, 0x3d65bd973db77241U,
  0x3e5b12d9baff4ffaU, 0x3d0f27f1bb777140U, 0xbf7c0456bd2a1f29U, 0x3df6532bbd4043bbU,
  0xbd872bfc3f0fa229U, 0x3ab8c488be1fb941U, 0x3e8ab3493e3fb262U, 0x3db0336a3ef4cf30U,
  0x3e22494fbcc0aef3U, 0xbca4217c3d7e01a9U, 0x3f1367f73b9ab4e6U, 0x3ecb4b22c00f47c5U,
  0x3f4cc5333f021cb4U, 0xc00acf6cc083657bU, 0xbfb974933df5f8d3U, 0x3d9c0045c0131e34U,
  0xbc21a4da3e88a027U, 0xbe33481c3ea87801U, 0x3f0fa939400d310cU, 0xbe7beeca3e6ecdb1U,
  0x3f34fc35beda7828U, 0x3f28dce2be7d382dU, 0xbf299633bd83783fU, 0xbe2eaae63c9c28a3U,
  0xbd9f5e10bf14f770U, 0xbf65a215be9abc60U, 0xbf1945e13cce7da1U, 0xbf04e3c6bf219137U,
  0x3f443b3d3f6b2988U, 0x3ea0116bbec05b71U, 0x3de05f893cfa891cU, 0xbea115023f40583cU,
  0xbab36547be47b079U, 0x4029133f4081102cU, 0xc0188ef83db91ae2U, 0xbdf6fff240c6f06cU,
  0xbfd13d8bbd93c1fdU, 0x3da82dc3be608893U, 0xbf038b793d800c95U, 0xbea7767fbed59e06U,
  0x3ec88a103e0f3bcaU, 0xbe395d37bdb92de2U, 0xbf2b894c3d1152e7U, 0x3de9ce9bbf934c91U,
  0xbde23e633f42c2beU, 0x3c90b15c3e1f957fU, 0x3eb772853e065f4cU, 0x3e85500cbf765919U,
  0xbcab35af3e511ea3U, 0x408e3db4be90b330U, 0x3dce3526bc4ee76aU, 0x3d4ab810beece432U,
  0xbd879c903e53d37fU, 0xbe2183f240054563U, 0x4082542cbc8897feU, 0xbd4d41a240ace24cU,
  0xbed471013db642adU, 0x3ce2a3bb3d9cc413U, 0x3e9aef7f3ecaeaa6U, 0xbd8be7163ed5a6c2U,
  0x3d3a10123bf23c63U, 0x3e3b6d6dbc1f3eb9U, 0x3f7b7ba03cb20b7dU, 0x3d88809bbdcb1813U,
  0xbde99cd7bd750c02U, 0xbeac7c093dca215dU, 0xbdf3ae96bd96af5bU, 0xbeb016cfbe232e10U,
  0x3e38f60f3ec80504U, 0x3e93492fbea6d99bU, 0xbdba1bc0bd572b34U, 0x3d5301173f0457ffU,
  0xbe416ce7bedaf91eU, 0x405f4120410292feU, 0x410c4be0bdc4f228U, 0xbd5f2683405e577bU,
  0xbfa86bacbdab0152U, 0x3e03cd3cbddc625dU, 0xbf0f4bcc3e90190eU, 0xbf13bfd7bf69b894U,
  0xbca617543e85101dU, 0x3a4bb30c3ead4c84U, 0xbe7bcd0b3b4d3e31U, 0xbdbf9b11bd519366U,
  0x3e1b332c3e0afa2bU, 0x3dc3735e3d3535e2U, 0x3eafc0c83ded3803U, 0x3eb69c72bd13cdefU,
  0xbe678566be574defU, 0xbef81caf3e0b5d09U, 0xbe497eebbd18d34aU, 0xbe76e6ed3dd4deccU,
  0xbeb999e53e728b82U, 0xbd3169ea3e9b9f44U, 0x3be9da823eb217f8U, 0x3e44c89dbe665b35U,
  0x3eab3f6cbe6b2568U, 0x3de1523f3e5662efU, 0xbd831d7abea20ad6U, 0xbd0fb0623e703069U,
  0x3e3bd8013d8be586U, 0xbcab989d3eb304f9U, 0xbd20d5153e17a2b0U, 0x3e5497e23e626d90U,
  0x3e7fd370be8bc37dU, 0xbe597cdfbe1177fdU, 0x3e36661d3c60d0b5U, 0xbe3f4ae73e75b94bU,
  0xbe5943eebcf10fdcU, 0x3e3f6ca63d21eb15U, 0xbe70a683be51ac51U, 0x3ea6168d00000000U,
  0x3ccb0cac3c2e879fU, 0x3e332b0f3e8481e6U, 0x3e2c87fabe68cad0U, 0xc066c6d8bd88894cU,
  0x3f312d0ebfda1cc5U, 0x404e2c5ac011960cU, 0x3d6b100ec005a4d2U, 0xbfd70dcac021c48bU,
  0xbfa1f3b03f89cc02U, 0xc05447913f7d4380U, 0xbff8999fc018f6fdU, 0x3dd9764f3f962826U,
  0x3e3df53fc007c0a5U, 0xbfce1ef9bfc4b064U, 0x3e7fa9aac03bed02U, 0x3d99a8f3bfaa8dc8U,
  0xbff22024bf9fed3dU, 0xbfa61e033f0d757bU, 0x3f21eae93f3048c5U, 0xc087c14f408a2ed9U,
  0x3f3d15ccc011b084U, 0x3f9301f53de0b986U, 0xc0e2a4dcc006c9f2U, 0x3f6f6b1f3f5c266bU,
  0xc01aadccbd3f88a8U, 0xbfe1663440249f99U, 0xc03a78e9c0156604U, 0xbf9d969a3f82dfaaU,
  0x3ff53d29U,
};


ai_handle g_network_weights_table[1 + 2] = {
  AI_HANDLE_PTR(AI_MAGIC_MARKER),
  AI_HANDLE_PTR(s_network_weights_array_u64),
  AI_HANDLE_PTR(AI_MAGIC_MARKER),
};

